{
  "version": "1.0",
  "truncation": null,
  "padding": null,
  "added_tokens": [
    {
      "id": 0,
      "content": "<unk>",
      "single_word": false,
      "lstrip": false,
      "rstrip": false,
      "normalized": false,
      "special": true
    },
    {
      "id": 1,
      "content": "<s>",
      "single_word": false,
      "lstrip": false,
      "rstrip": false,
      "normalized": false,
      "special": true
    },
    {
      "id": 2,
      "content": "</s>",
      "single_word": false,
      "lstrip": false,
      "rstrip": false,
      "normalized": false,
      "special": true
    },
    {
      "id": 3,
      "content": "<pad>",
      "single_word": false,
      "lstrip": false,
      "rstrip": false,
      "normalized": false,
      "special": true
    }
  ],
  "normalizer": null,
  "pre_tokenizer": {
    "type": "Whitespace"
  },
  "post_processor": null,
  "decoder": null,
  "model": {
    "type": "BPE",
    "dropout": null,
    "unk_token": "<unk>",
    "continuing_subword_prefix": null,
    "end_of_word_suffix": null,
    "fuse_unk": false,
    "byte_fallback": false,
    "ignore_merges": false,
    "vocab": {
      "<unk>": 0,
      "<s>": 1,
      "</s>": 2,
      "<pad>": 3,
      "!": 4,
      "\"": 5,
      "'": 6,
      "(": 7,
      ")": 8,
      "*": 9,
      ",": 10,
      "-": 11,
      ".": 12,
      "/": 13,
      "0": 14,
      "1": 15,
      "2": 16,
      "3": 17,
      ":": 18,
      "?": 19,
      "A": 20,
      "B": 21,
      "C": 22,
      "D": 23,
      "E": 24,
      "F": 25,
      "G": 26,
      "H": 27,
      "I": 28,
      "K": 29,
      "L": 30,
      "M": 31,
      "N": 32,
      "O": 33,
      "P": 34,
      "S": 35,
      "T": 36,
      "U": 37,
      "W": 38,
      "X": 39,
      "Y": 40,
      "\\": 41,
      "a": 42,
      "b": 43,
      "c": 44,
      "d": 45,
      "e": 46,
      "f": 47,
      "g": 48,
      "h": 49,
      "i": 50,
      "j": 51,
      "k": 52,
      "l": 53,
      "m": 54,
      "n": 55,
      "o": 56,
      "p": 57,
      "r": 58,
      "s": 59,
      "t": 60,
      "u": 61,
      "v": 62,
      "w": 63,
      "x": 64,
      "y": 65,
      "z": 66,
      "«": 67,
      "­": 68,
      "»": 69,
      "،": 70,
      "؛": 71,
      "؟": 72,
      "ء": 73,
      "آ": 74,
      "أ": 75,
      "ؤ": 76,
      "إ": 77,
      "ئ": 78,
      "ا": 79,
      "ب": 80,
      "ة": 81,
      "ت": 82,
      "ث": 83,
      "ج": 84,
      "ح": 85,
      "خ": 86,
      "د": 87,
      "ذ": 88,
      "ر": 89,
      "ز": 90,
      "س": 91,
      "ش": 92,
      "ص": 93,
      "ض": 94,
      "ط": 95,
      "ظ": 96,
      "ع": 97,
      "غ": 98,
      "ـ": 99,
      "ف": 100,
      "ق": 101,
      "ك": 102,
      "ل": 103,
      "م": 104,
      "ن": 105,
      "ه": 106,
      "و": 107,
      "ى": 108,
      "ي": 109,
      "ً": 110,
      "َ": 111,
      "ُ": 112,
      "ِ": 113,
      "ّ": 114,
      "ٔ": 115,
      "٬": 116,
      "ٴ": 117,
      "پ": 118,
      "چ": 119,
      "ژ": 120,
      "ک": 121,
      "گ": 122,
      "ں": 123,
      "ھ": 124,
      "ۀ": 125,
      "ی": 126,
      "۰": 127,
      "۱": 128,
      "۲": 129,
      "۳": 130,
      "۴": 131,
      "۵": 132,
      "۷": 133,
      "۸": 134,
      "۹": 135,
      "​": 136,
      "‌": 137,
      "‍": 138,
      "‎": 139,
      "‏": 140,
      "–": 141,
      "—": 142,
      "’": 143,
      "“": 144,
      "”": 145,
      "„": 146,
      "‪": 147,
      "‫": 148,
      "‬": 149,
      "ند": 150,
      "با": 151,
      "می": 152,
      "را": 153,
      "رد": 154,
      "ست": 155,
      "به": 156,
      "ان": 157,
      "ید": 158,
      "رو": 159,
      "می‌": 160,
      "کرد": 161,
      "ها": 162,
      "ود": 163,
      "او": 164,
      "در": 165,
      "لی": 166,
      "ام": 167,
      "خو": 168,
      "یک": 169,
      "آن": 170,
      "دا": 171,
      "فت": 172,
      "بود": 173,
      "زی": 174,
      "دو": 175,
      "ای": 176,
      "شت": 177,
      "از": 178,
      "یم": 179,
      "تو": 180,
      "که": 181,
      "ما": 182,
      "ار": 183,
      "شد": 184,
      "بازی": 185,
      "کن": 186,
      "هم": 187,
      "دوست": 188,
      "رگ": 189,
      "‌ها": 190,
      "است": 191,
      "روز": 192,
      "گر": 193,
      "گفت": 194,
      "بی": 195,
      "ال": 196,
      "آنها": 197,
      "داشت": 198,
      "اد": 199,
      "اس": 200,
      "بز": 201,
      "تیم": 202,
      "نگ": 203,
      "خی": 204,
      "ری": 205,
      "خت": 206,
      "خوش": 207,
      "کند": 208,
      "پر": 209,
      "خیلی": 210,
      "دید": 211,
      "بزرگ": 212,
      "تا": 213,
      "کردند": 214,
      "اه": 215,
      "حال": 216,
      "گی": 217,
      "من": 218,
      "زد": 219,
      "این": 220,
      "کو": 221,
      "برا": 222,
      "سی": 223,
      "اما": 224,
      "دی": 225,
      "مک": 226,
      "لو": 227,
      "کوچ": 228,
      "لیلی": 229,
      "نی": 230,
      "ه‌": 231,
      "خوشحال": 232,
      "برای": 233,
      "تی": 234,
      "می‌خو": 235,
      "نا": 236,
      "تام": 237,
      "مادر": 238,
      "نده": 239,
      "مو": 240,
      "رس": 241,
      "ره": 242,
      "رفت": 243,
      "پس": 244,
      "شان": 245,
      ".\"": 246,
      "داد": 247,
      "هر": 248,
      "شی": 249,
      "می‌تو": 250,
      "لا": 251,
      "خان": 252,
      "مام": 253,
      "باب": 254,
      "یه": 255,
      "رم": 256,
      "پید": 257,
      "چه": 258,
      "سو": 259,
      "آن‌ها": 260,
      "روی": 261,
      "پیدا": 262,
      "نام": 263,
      "می‌کرد": 264,
      "‌های": 265,
      "اب": 266,
      "ات": 267,
      "خند": 268,
      "کمک": 269,
      "کنند": 270,
      "های": 271,
      "کوچک": 272,
      "می‌خواست": 273,
      "پرنده": 274,
      "چی": 275,
      "اشت": 276,
      "وق": 277,
      "!\"": 278,
      "گرفت": 279,
      "بودند": 280,
      "ون": 281,
      "انست": 282,
      "ده": 283,
      "اسباب": 284,
      "گذ": 285,
      "مت": 286,
      "اند": 287,
      "اش": 288,
      "بر": 289,
      "گو": 290,
      "بع": 291,
      "ور": 292,
      "تر": 293,
      "دوستان": 294,
      "خانه": 295,
      "مادرش": 296,
      "سگ": 297,
      "بل": 298,
      "اح": 299,
      "درخت": 300,
      "کر": 301,
      "توپ": 302,
      "برد": 303,
      "دخت": 304,
      "گربه": 305,
      "وی": 306,
      "نه": 307,
      "مد": 308,
      "جا": 309,
      "نگاه": 310,
      "بن": 311,
      "دیگر": 312,
      "هی": 313,
      "پار": 314,
      "شه": 315,
      "بعد": 316,
      "همه": 317,
      "ه‌ای": 318,
      "وقتی": 319,
      "رسید": 320,
      "لب": 321,
      "کار": 322,
      "مامان": 323,
      "روزی": 324,
      "کردن": 325,
      "شدند": 326,
      "شید": 327,
      "سا": 328,
      "؟\"": 329,
      "زند": 330,
      "شرو": 331,
      "شروع": 332,
      "لبخند": 333,
      "دختر": 334,
      "رون": 335,
      "کی": 336,
      "یا": 337,
      "هست": 338,
      "پارک": 339,
      "دست": 340,
      "ساس": 341,
      "ین": 342,
      "احساس": 343,
      "برگ": 344,
      "اون": 345,
      "سر": 346,
      "خود": 347,
      "مان": 348,
      "چیز": 349,
      "شده": 350,
      "می‌توان": 351,
      "بال": 352,
      "همی": 353,
      "ولو": 354,
      "پسر": 355,
      "باید": 356,
      "فکر": 357,
      "کوچولو": 358,
      "شین": 359,
      "زندگی": 360,
      "ران": 361,
      "کنم": 362,
      "مرد": 363,
      "شن": 364,
      "یاد": 365,
      "بیرون": 366,
      "صدا": 367,
      "یی": 368,
      "باز": 369,
      "ماشین": 370,
      "یدند": 371,
      "باره": 372,
      "آمد": 373,
      "راح": 374,
      "می‌د": 375,
      "پرس": 376,
      "الی": 377,
      "خورد": 378,
      "گه": 379,
      "ادی": 380,
      "شک": 381,
      "وش": 382,
      "کنیم": 383,
      "خواست": 384,
      "بچه": 385,
      "پی": 386,
      "ظر": 387,
      "وا": 388,
      "افت": 389,
      "جدید": 390,
      "تمام": 391,
      "فا": 392,
      "می‌کردند": 393,
      "بزرگی": 394,
      "تاب": 395,
      "سیار": 396,
      "غم": 397,
      "رنگ": 398,
      "بو": 399,
      "تص": 400,
      "مکس": 401,
      "عی": 402,
      "بسیار": 403,
      "‌بازی": 404,
      "بان": 405,
      "کس": 406,
      "دار": 407,
      "جع": 408,
      "تش": 409,
      "نش": 410,
      "پای": 411,
      "آب": 412,
      "داشتند": 413,
      "جعبه": 414,
      "بلند": 415,
      "اسباب‌بازی": 416,
      "میا": 417,
      "رین": 418,
      "اف": 419,
      "بالا": 420,
      "خواه": 421,
      "راحت": 422,
      "غمگی": 423,
      "زیبا": 424,
      "دوستانش": 425,
      "اسم": 426,
      "وان": 427,
      "امی": 428,
      "دوباره": 429,
      "نزد": 430,
      "سمت": 431,
      "سام": 432,
      "پرسید": 433,
      "باش": 434,
      "افتاد": 435,
      "نج": 436,
      "گوید": 437,
      "مهر": 438,
      "لوسی": 439,
      "اید": 440,
      "حر": 441,
      "خوبی": 442,
      "کنه": 443,
      "کنی": 444,
      "قی": 445,
      "دوید": 446,
      "می‌دانست": 447,
      "کرده": 448,
      "پرو": 449,
      "نو": 450,
      "برو": 451,
      "غذ": 452,
      "جان": 453,
      "گذاشت": 454,
      "گل": 455,
      "شود": 456,
      "تک": 457,
      "سنگ": 458,
      "همیشه": 459,
      "سعی": 460,
      "غمگین": 461,
      "آو": 462,
      "مز": 463,
      "دهد": 464,
      "اسپ": 465,
      "جو": 466,
      "قط": 467,
      "زده": 468,
      "دارد": 469,
      "زیادی": 470,
      "بهت": 471,
      "ناراحت": 472,
      "ترسید": 473,
      "رفتند": 474,
      "میم": 475,
      "دور": 476,
      "شما": 477,
      "ول": 478,
      "کل": 479,
      "تصمیم": 480,
      "بد": 481,
      "جام": 482,
      "باشد": 483,
      "خل": 484,
      "تع": 485,
      "ببی": 486,
      "بگی": 487,
      "ناگه": 488,
      "ناگهان": 489,
      "اده": 490,
      "نزدیک": 491,
      "تکان": 492,
      "اسپات": 493,
      "راه": 494,
      "نبود": 495,
      "باغ": 496,
      "بار": 497,
      "پدر": 498,
      "داخل": 499,
      "قرم": 500,
      "ولی": 501,
      "زمی": 502,
      "دم": 503,
      "مر": 504,
      "دوستش": 505,
      "قدر": 506,
      "اری": 507,
      "پرواز": 508,
      "بیا": 509,
      "سه": 510,
      "می‌کند": 511,
      "برگشت": 512,
      "اتا": 513,
      "شو": 514,
      "غل": 515,
      "اتاق": 516,
      "قرمز": 517,
      "طر": 518,
      "دن": 519,
      "مه": 520,
      "سری": 521,
      "مرا": 522,
      "برداشت": 523,
      "درست": 524,
      "قب": 525,
      "مهربان": 526,
      "حالی": 527,
      "می‌توانست": 528,
      "ماکس": 529,
      "چون": 530,
      "منت": 531,
      "سل": 532,
      "قه": 533,
      "زمین": 534,
      "توی": 535,
      "نشان": 536,
      "خوب": 537,
      "انی": 538,
      "آفت": 539,
      "دیدند": 540,
      "اتفا": 541,
      "کشید": 542,
      "حی": 543,
      "نیست": 544,
      "ماهی": 545,
      "هستند": 546,
      "کت": 547,
      "ارد": 548,
      "بله": 549,
      "نم": 550,
      "بهترین": 551,
      "انجام": 552,
      "بخو": 553,
      "سریع": 554,
      "مس": 555,
      "سته": 556,
      "صدای": 557,
      "دنبال": 558,
      "می‌گوید": 559,
      "ه‌اش": 560,
      "جی": 561,
      "جود": 562,
      "خرگ": 563,
      "چر": 564,
      "پایین": 565,
      "زیر": 566,
      "آس": 567,
      "میز": 568,
      "مث": 569,
      "نمی‌": 570,
      "پرید": 571,
      "گرفتند": 572,
      "یر": 573,
      "حیوان": 574,
      "سارا": 575,
      "مثل": 576,
      "خر": 577,
      "گاه": 578,
      "طور": 579,
      "بانی": 580,
      "سلام": 581,
      "انه": 582,
      "ندند": 583,
      "خرس": 584,
      "کوچکی": 585,
      "خرگوش": 586,
      "بغل": 587,
      "جنگ": 588,
      "چیزی": 589,
      "مع": 590,
      "قف": 591,
      "گذرا": 592,
      "حش": 593,
      "متو": 594,
      "نند": 595,
      "آنا": 596,
      "باد": 597,
      "گوش": 598,
      "منتظر": 599,
      "مراقب": 600,
      "قای": 601,
      "حرف": 602,
      "آیا": 603,
      "توانست": 604,
      "چیزهای": 605,
      "فی": 606,
      "اینکه": 607,
      "وجود": 608,
      "کش": 609,
      "آورد": 610,
      "ازه": 611,
      "دارم": 612,
      "لذ": 613,
      "سرگ": 614,
      "مح": 615,
      "روس": 616,
      "می‌کنند": 617,
      "خودش": 618,
      "لذت": 619,
      "عص": 620,
      "گرد": 621,
      "خا": 622,
      "جک": 623,
      "پو": 624,
      "‌هایش": 625,
      "جای": 626,
      "جال": 627,
      "هیجان": 628,
      "بیشت": 629,
      "درخ": 630,
      "موش": 631,
      "فقط": 632,
      "نمی": 633,
      "کیک": 634,
      "جه": 635,
      "کتاب": 636,
      "سم": 637,
      "ه‌ی": 638,
      "گشت": 639,
      "جنگل": 640,
      "فر": 641,
      "حیوانات": 642,
      "تن": 643,
      "حالا": 644,
      "تشکر": 645,
      "کنار": 646,
      "‌تر": 647,
      "آسمان": 648,
      "چرا": 649,
      "دارند": 650,
      "عروس": 651,
      "خندیدند": 652,
      "مزه": 653,
      "آرا": 654,
      "چرخ": 655,
      "زدند": 656,
      "جب": 657,
      "باری": 658,
      "آبی": 659,
      "اتفاق": 660,
      "له": 661,
      "سیب": 662,
      "نظر": 663,
      "پشت": 664,
      "بدی": 665,
      "رز": 666,
      "فرا": 667,
      "قدم": 668,
      "فش": 669,
      "شاد": 670,
      "نق": 671,
      "داشته": 672,
      "می‌تواند": 673,
      "کا": 674,
      "سرگرم": 675,
      "شا": 676,
      "نگه": 677,
      "کمی": 678,
      "تما": 679,
      "می‌خواه": 680,
      "عه": 681,
      "دادند": 682,
      "ترسیده": 683,
      "گذراندند": 684,
      "یدن": 685,
      "می‌توانم": 686,
      "حشره": 687,
      "شنا": 688,
      "ستان": 689,
      "غذا": 690,
      "زود": 691,
      "کنید": 692,
      "برود": 693,
      ".»": 694,
      "جادو": 695,
      "گاری": 696,
      "یکی": 697,
      "شنید": 698,
      "عصبانی": 699,
      "گریه": 700,
      "درخشان": 701,
      "قص": 702,
      "خواب": 703,
      "باه": 704,
      "گفتند": 705,
      "پا": 706,
      "زدن": 707,
      "گیر": 708,
      "غیر": 709,
      "بخ": 710,
      "راک": 711,
      "مش": 712,
      "فرو": 713,
      "خوشمزه": 714,
      "بت": 715,
      "پدرش": 716,
      "چو": 717,
      "اره": 718,
      "آفتاب": 719,
      "زن": 720,
      "داستان": 721,
      "اط": 722,
      "اشتراک": 723,
      "بگیرد": 724,
      "خور": 725,
      "کلاه": 726,
      "روزگاری": 727,
      "وقت": 728,
      "فار": 729,
      "لبا": 730,
      "مهم": 731,
      "خانو": 732,
      "می‌توانی": 733,
      "دختری": 734,
      "لف": 735,
      "‌اش": 736,
      "نمی‌دانست": 737,
      "نداشت": 738,
      "لاق": 739,
      "ممن": 740,
      "بالای": 741,
      "شیر": 742,
      "بگذ": 743,
      "ممنون": 744,
      "‌زده": 745,
      "!»": 746,
      "استف": 747,
      "فارسی": 748,
      "شهر": 749,
      "مل": 750,
      "شاید": 751,
      "توان": 752,
      "ساخت": 753,
      "تعجب": 754,
      "می‌کنم": 755,
      "استفاده": 756,
      "باشه": 757,
      "برگرد": 758,
      "ترس": 759,
      "سخت": 760,
      "مردم": 761,
      "بهتر": 762,
      "صند": 763,
      "متن": 764,
      "چوب": 765,
      "کوچولویی": 766,
      "شدن": 767,
      "قور": 768,
      "لباس": 769,
      "لط": 770,
      "قورباغ": 771,
      "قایق": 772,
      "صور": 773,
      "پسری": 774,
      "غرو": 775,
      "کیتی": 776,
      "نیم": 777,
      "حرکت": 778,
      "مامانش": 779,
      "هرگ": 780,
      "هرگز": 781,
      "تح": 782,
      "مند": 783,
      "تمیز": 784,
      "سالی": 785,
      "لطفا": 786,
      "عت": 787,
      "داری": 788,
      "خوشحالی": 789,
      "ابی": 790,
      "نمی‌توانست": 791,
      "کم": 792,
      "قورباغه": 793,
      "می‌خواستند": 794,
      "بست": 795,
      "مورد": 796,
      "جادویی": 797,
      "اگر": 798,
      "آنجا": 799,
      "دیگ": 800,
      "زودی": 801,
      "اهم": 802,
      "حتی": 803,
      "قت": 804,
      "خورشید": 805,
      "چطور": 806,
      "ویژ": 807,
      "گم": 808,
      "سال": 809,
      "لاش": 810,
      "بده": 811,
      "شگفت": 812,
      "فری": 813,
      "تلاش": 814,
      "هیچ": 815,
      "وه": 816,
      "کسی": 817,
      "سرش": 818,
      "ایی": 819,
      "ماند": 820,
      "هستی": 821,
      "پرند": 822,
      "چش": 823,
      "نگران": 824,
      "ببیند": 825,
      "نوز": 826,
      "یکدیگر": 827,
      "پسربچه": 828,
      "بش": 829,
      "هنگ": 830,
      "شوند": 831,
      "هایش": 832,
      "ایده": 833,
      "می‌توانیم": 834,
      "سرس": 835,
      "همچ": 836,
      "عروسک": 837,
      "بنا": 838,
      "گرم": 839,
      "نشست": 840,
      "آش": 841,
      "نیاز": 842,
      "بند": 843,
      "بلو": 844,
      "قوی": 845,
      "بابا": 846,
      "می‌بی": 847,
      "حیا": 848,
      "حیاط": 849,
      "نرم": 850,
      ":\"": 851,
      "سپس": 852,
      "قل": 853,
      "سف": 854,
      "شجا": 855,
      "خواهد": 856,
      "خندید": 857,
      "جدیدی": 858,
      "نتوانست": 859,
      "آرام": 860,
      "نان": 861,
      "مخ": 862,
      "اج": 863,
      "جمه": 864,
      "کامی": 865,
      "منتظره‌ای": 866,
      "تخت": 867,
      "براین": 868,
      "بنابراین": 869,
      "واق": 870,
      "نمی‌خواست": 871,
      "امه": 872,
      "دویدند": 873,
      "کامیون": 874,
      "نست": 875,
      "کردم": 876,
      "اطرا": 877,
      "جالب": 878,
      "پایان": 879,
      "مال": 880,
      "بیشتر": 881,
      "هوا": 882,
      "په": 883,
      "بردند": 884,
      "آفتابی": 885,
      "سنج": 886,
      "چیست": 887,
      "تق": 888,
      "طرف": 889,
      "فهمی": 890,
      "پز": 891,
      "بخورد": 892,
      "رقص": 893,
      "متوجه": 894,
      "سرسره": 895,
      "دع": 896,
      "رفتن": 897,
      "ابد": 898,
      "چند": 899,
      "کنجک": 900,
      "کنجکاو": 901,
      "زمان": 902,
      "ادامه": 903,
      "آما": 904,
      "باشند": 905,
      "کننده": 906,
      "غیرمنتظره‌ای": 907,
      "لکه": 908,
      "فروش": 909,
      "سای": 910,
      "شادی": 911,
      "مون": 912,
      "طو": 913,
      "مساب": 914,
      "سنجاب": 915,
      "سبز": 916,
      "خونه": 917,
      "متوقف": 918,
      "فریاد": 919,
      "ریخت": 920,
      "دیگری": 921,
      "هستم": 922,
      "خسته": 923,
      "درباره": 924,
      "شون": 925,
      "دیگران": 926,
      "محکم": 927,
      "اشی": 928,
      "فهمید": 929,
      "خوردن": 930,
      "رنگی": 931,
      "ذر": 932,
      "افظ": 933,
      "امتح": 934,
      "بس": 935,
      "امتحان": 936,
      "دهند": 937,
      "کاری": 938,
      "دخترک": 939,
      "آنقدر": 940,
      "جوی": 941,
      "بودن": 942,
      "ترجمه": 943,
      "پوشید": 944,
      "شب": 945,
      "میوه": 946,
      "رار": 947,
      "جواب": 948,
      "خانواده": 949,
      "بپ": 950,
      "بزند": 951,
      "مسابقه": 952,
      "آرز": 953,
      "بور": 954,
      "تماشا": 955,
      "نکرد": 956,
      "راب": 957,
      "دریا": 958,
      "اینجا": 959,
      "قش": 960,
      "اخت": 961,
      "دیگه": 962,
      "هایی": 963,
      "بخت": 964,
      "بدو": 965,
      "رند": 966,
      "غول": 967,
      "مق": 968,
      "تیمی": 969,
      "عالی": 970,
      "‌هایشان": 971,
      "آماده": 972,
      "شاه": 973,
      "پش": 974,
      "بیای": 975,
      "اردک": 976,
      "تپه": 977,
      "گیری": 978,
      "خواهی": 979,
      "خاطر": 980,
      "ایش": 981,
      "ویژه": 982,
      "جن": 983,
      "تواند": 984,
      "شجاع": 985,
      "بلندی": 986,
      "آتش": 987,
      "تنها": 988,
      "مي": 989,
      "بیشتری": 990,
      "تار": 991,
      "اونا": 992,
      "شمالو": 993,
      "پشمالو": 994,
      "مواف": 995,
      "راز": 996,
      "می‌شد": 997,
      "سیم": 998,
      "درس": 999,
      "هنوز": 1000,
      "سرد": 1001,
      "نقاشی": 1002,
      "آشپز": 1003,
      "برگشتند": 1004,
      "سورا": 1005,
      "اطراف": 1006,
      "پنج": 1007,
      "هایت": 1008,
      "همان": 1009,
      "جرا": 1010,
      "فرد": 1011,
      "ماجرا": 1012,
      "دیدن": 1013,
      "خوشبخت": 1014,
      "سب": 1015,
      "باران": 1016,
      "رود": 1017,
      "صندلی": 1018,
      "مزر": 1019,
      "غرور": 1020,
      "؟»": 1021,
      "عجی": 1022,
      "لمس": 1023,
      "گاهی": 1024,
      "ضی": 1025,
      "رچه": 1026,
      "پنه": 1027,
      "اتاقش": 1028,
      "لح": 1029,
      "مط": 1030,
      "فرار": 1031,
      "يد": 1032,
      "نین": 1033,
      "آسیب": 1034,
      "ذه": 1035,
      "خدا": 1036,
      "دیو": 1037,
      "آواز": 1038,
      "جمع": 1039,
      "کاغذ": 1040,
      "شر": 1041,
      "گذاشتند": 1042,
      "مزرعه": 1043,
      "بچه‌ها": 1044,
      "تند": 1045,
      "برج": 1046,
      "وض": 1047,
      "بچ": 1048,
      "زیبایی": 1049,
      "حل": 1050,
      "صح": 1051,
      "ناک": 1052,
      "مشک": 1053,
      "مج": 1054,
      "اومد": 1055,
      "می‌توانند": 1056,
      "خواند": 1057,
      "موافقت": 1058,
      "بی‌": 1059,
      "اسف": 1060,
      "گوی": 1061,
      "بوبو": 1062,
      "سوراخ": 1063,
      "یف": 1064,
      "می‌شود": 1065,
      "مرغ": 1066,
      "جست": 1067,
      "کث": 1068,
      "وارد": 1069,
      "آغ": 1070,
      "بریم": 1071,
      "دل": 1072,
      "زرد": 1073,
      "آرزو": 1074,
      "پنهان": 1075,
      "درون": 1076,
      "باشی": 1077,
      "یده": 1078,
      "عث": 1079,
      "باعث": 1080,
      "همین": 1081,
      "چقدر": 1082,
      "می‌خواهم": 1083,
      "امیدو": 1084,
      "انداخت": 1085,
      "اتفاقی": 1086,
      "می‌داد": 1087,
      "بساز": 1088,
      "امیدوار": 1089,
      "نهایت": 1090,
      "می‌رفت": 1091,
      "کردی": 1092,
      "اجازه": 1093,
      "تخ": 1094,
      "عا": 1095,
      "میر": 1096,
      "حافظ": 1097,
      "لوی": 1098,
      "خوشش": 1099,
      "آشپزخانه": 1100,
      "سوار": 1101,
      "تب": 1102,
      "تان": 1103,
      "خداحافظ": 1104,
      "انش": 1105,
      "فروشگاه": 1106,
      "دک": 1107,
      "مار": 1108,
      "قطار": 1109,
      "ذهنش": 1110,
      "نباش": 1111,
      "دستش": 1112,
      "شاخ": 1113,
      "غاف": 1114,
      "غافل": 1115,
      "آمو": 1116,
      "فین": 1117,
      "متاسف": 1118,
      "چیزها": 1119,
      "قرار": 1120,
      "خوردند": 1121,
      "شیری": 1122,
      "جایی": 1123,
      "دوستاش": 1124,
      "دادن": 1125,
      "بلوک": 1126,
      "جین": 1127,
      "یک‌": 1128,
      "آغوش": 1129,
      "زه": 1130,
      "جدیدش": 1131,
      "قشنگ": 1132,
      "برس": 1133,
      "روشن": 1134,
      "گرس": 1135,
      "هیجان‌زده": 1136,
      "بوس": 1137,
      "افتاده": 1138,
      "زان": 1139,
      "می‌زد": 1140,
      "وای": 1141,
      "رسیدند": 1142,
      "ستاره": 1143,
      "شته": 1144,
      "مادرشان": 1145,
      "خانم": 1146,
      "فراموش": 1147,
      "انگی": 1148,
      "آید": 1149,
      "وح": 1150,
      "روند": 1151,
      "‌هایی": 1152,
      "مرتب": 1153,
      "یش": 1154,
      "قبل": 1155,
      "زش": 1156,
      "ترین": 1157,
      "گرفته": 1158,
      "مغ": 1159,
      "کثیف": 1160,
      "داده": 1161,
      "متشک": 1162,
      "شیرینی": 1163,
      "غر": 1164,
      "متشکرم": 1165,
      "گان": 1166,
      "ه‌اند": 1167,
      "قول": 1168,
      "بعدا": 1169,
      "اض": 1170,
      "بدهد": 1171,
      "سط": 1172,
      "‌ای": 1173,
      "بات": 1174,
      "مادربزرگ": 1175,
      "یخ": 1176,
      "آز": 1177,
      "بگذار": 1178,
      "تقسیم": 1179,
      "خداحافظی": 1180,
      "خار": 1181,
      "قا": 1182,
      "پیر": 1183,
      "جاد": 1184,
      "سران": 1185,
      "تون": 1186,
      "بیایید": 1187,
      "گویند": 1188,
      "يک": 1189,
      "بادی": 1190,
      "ئن": 1191,
      "تبدی": 1192,
      "خلا": 1193,
      "ببینند": 1194,
      "تبدیل": 1195,
      "رها": 1196,
      "کنن": 1197,
      "خیس": 1198,
      "رنگار": 1199,
      "دوچرخ": 1200,
      "صدایی": 1201,
      "داریم": 1202,
      "می‌خواهد": 1203,
      "سرانجام": 1204,
      "واقعا": 1205,
      "می‌دهد": 1206,
      "رنگارنگ": 1207,
      "اول": 1208,
      "مدتی": 1209,
      "کیسه": 1210,
      "عکس": 1211,
      "نک": 1212,
      "می‌آمد": 1213,
      "ایجاد": 1214,
      "بپرد": 1215,
      "صحبت": 1216,
      "میمی": 1217,
      "دیوار": 1218,
      "هار": 1219,
      "ریف": 1220,
      "می‌تونم": 1221,
      "خاک": 1222,
      "دنی": 1223,
      "ایست": 1224,
      "هایشان": 1225,
      "آموخت": 1226,
      "‌شان": 1227,
      "مورچه": 1228,
      "زیاد": 1229,
      "گاو": 1230,
      "غذای": 1231,
      "ریم": 1232,
      "هل": 1233,
      "غمگینی": 1234,
      "باهوش": 1235,
      "دام": 1236,
      "براق": 1237,
      "بق": 1238,
      "همچنان": 1239,
      "گرسنه": 1240,
      "شدید": 1241,
      "دوستی": 1242,
      "بستنی": 1243,
      "قاب": 1244,
      "پرتاب": 1245,
      "لحظ": 1246,
      "اق": 1247,
      "دانست": 1248,
      "می‌خوام": 1249,
      "دری": 1250,
      "تامی": 1251,
      "دویدن": 1252,
      "لاقات": 1253,
      "آم": 1254,
      "ملاقات": 1255,
      "انم": 1256,
      "بروند": 1257,
      "دعوا": 1258,
      "درد": 1259,
      "دراز": 1260,
      "بح": 1261,
      "دوست‌ها": 1262,
      "توپش": 1263,
      "مشغول": 1264,
      "برادر": 1265,
      "بید": 1266,
      "عل": 1267,
      "پیچ": 1268,
      "چیزهایی": 1269,
      "بچه‌ای": 1270,
      "بقیه": 1271,
      "خراب": 1272,
      "مهربانی": 1273,
      "کشیدند": 1274,
      "عذر": 1275,
      "لات": 1276,
      "باشیم": 1277,
      "چشم": 1278,
      "رمی": 1279,
      "بوت": 1280,
      "عذرخواهی": 1281,
      "بدون": 1282,
      "کام": 1283,
      "داره": 1284,
      "طول": 1285,
      "سیر": 1286,
      "مطم": 1287,
      "دف": 1288,
      "بهتری": 1289,
      "همچنین": 1290,
      "امروز": 1291,
      "داشتن": 1292,
      "چنگ": 1293,
      "اص": 1294,
      "زید": 1295,
      "قدی": 1296,
      "سرعت": 1297,
      "صورت": 1298,
      "وع": 1299,
      "برمی‌": 1300,
      "پیم": 1301,
      "لیلا": 1302,
      "ایمی": 1303,
      "نشد": 1304,
      "مم": 1305,
      "شاخه": 1306,
      "دیزی": 1307,
      "باها": 1308,
      "لیز": 1309,
      "شکست": 1310,
      "می‌رسید": 1311,
      "همراه": 1312,
      "زنبور": 1313,
      "کشد": 1314,
      "باشید": 1315,
      "پری": 1316,
      "صندوق": 1317,
      "جویی": 1318,
      "غافلگیری": 1319,
      "هدی": 1320,
      "گل‌ها": 1321,
      "قلعه": 1322,
      "وت": 1323,
      "م‌": 1324,
      "استراحت": 1325,
      "نامه": 1326,
      "تعمیر": 1327,
      "می‌کنی": 1328,
      "رانند": 1329,
      "پیش": 1330,
      "مهمانی": 1331,
      "دوچرخه": 1332,
      "حوض": 1333,
      "اسب": 1334,
      "می‌خواهی": 1335,
      "جغ": 1336,
      "ه‌ام": 1337,
      "ظره": 1338,
      "اهر": 1339,
      "خواستند": 1340,
      "نباید": 1341,
      "خواهم": 1342,
      "موسی": 1343,
      "خرد": 1344,
      "پذ": 1345,
      "لیس": 1346,
      "خلاقی": 1347,
      "ساح": 1348,
      "می‌خندیدند": 1349,
      "مکان": 1350,
      "ابر": 1351,
      "نجات": 1352,
      "می‌دانستند": 1353,
      "پنجره": 1354,
      "شریک": 1355,
      "ایده‌ای": 1356,
      "آقای": 1357,
      "طنا": 1358,
      "بهش": 1359,
      "جغد": 1360,
      "موسیقی": 1361,
      "پاس": 1362,
      "بدجن": 1363,
      "می‌گذ": 1364,
      "شیرین": 1365,
      "بیدار": 1366,
      "قدیمی": 1367,
      "هو": 1368,
      "مراقبت": 1369,
      "خانواد": 1370,
      "ساحل": 1371,
      "‌انگی": 1372,
      "می‌بیند": 1373,
      "ببرد": 1374,
      "سفر": 1375,
      "چمن": 1376,
      "دیده": 1377,
      "سنگین": 1378,
      "دمش": 1379,
      "مطمئن": 1380,
      "اسباب‌بازی‌ها": 1381,
      "غروب": 1382,
      "ماجراجویی": 1383,
      "به‌": 1384,
      "امن": 1385,
      "اِ": 1386,
      "اندازه": 1387,
      "بخش": 1388,
      "صورتی": 1389,
      "اتو": 1390,
      "واو": 1391,
      "کجا": 1392,
      "روباه": 1393,
      "اع": 1394,
      "حص": 1395,
      "کمکش": 1396,
      "خواهند": 1397,
      "فیل": 1398,
      "سفید": 1399,
      "صبح": 1400,
      "پنی": 1401,
      "موف": 1402,
      "احمق": 1403,
      "\".": 1404,
      "خشک": 1405,
      "بیل": 1406,
      "اشق": 1407,
      "پرندگان": 1408,
      "خره": 1409,
      "پیاد": 1410,
      "می‌زند": 1411,
      "گرفتن": 1412,
      "کلید": 1413,
      "بدود": 1414,
      "بلا": 1415,
      "زار": 1416,
      "کفش": 1417,
      "می‌تونی": 1418,
      "لطفاً": 1419,
      "مخفی": 1420,
      "پرت": 1421,
      "رفته": 1422,
      "بتواند": 1423,
      "صبر": 1424,
      "شکسته": 1425,
      "گاز": 1426,
      "بین": 1427,
      "جستجو": 1428,
      "حس": 1429,
      "چسب": 1430,
      "‌کننده": 1431,
      "بری": 1432,
      "رات": 1433,
      "هنگامی": 1434,
      "سیاه": 1435,
      "قسمت": 1436,
      "لانه": 1437,
      "بیند": 1438,
      "دخترکی": 1439,
      "علف": 1440,
      "مخت": 1441,
      "چیه": 1442,
      "تمند": 1443,
      "بیاو": 1444,
      "برایش": 1445,
      "پارس": 1446,
      "تعریف": 1447,
      "گنج": 1448,
      "بگذارد": 1449,
      "تاریک": 1450,
      "راحتی": 1451,
      "پروانه": 1452,
      "خواهر": 1453,
      "توانیم": 1454,
      "طناب": 1455,
      "بخشید": 1456,
      "طولانی": 1457,
      "كرد": 1458,
      "مدر": 1459,
      "انگ": 1460,
      "می‌بینند": 1461,
      "زنند": 1462,
      "پل": 1463,
      "دونست": 1464,
      "شگفت‌زده": 1465,
      "عجیبی": 1466,
      "ين": 1467,
      "آن‌": 1468,
      "آمدند": 1469,
      "نشستند": 1470,
      "سگی": 1471,
      "هواپیم": 1472,
      "بتی": 1473,
      "علا": 1474,
      "دختربچه": 1475,
      "اخلاقی": 1476,
      "شام": 1477,
      "می‌برد": 1478,
      "برنده": 1479,
      "جشن": 1480,
      "بخواند": 1481,
      "قات": 1482,
      "ازش": 1483,
      "برگرداند": 1484,
      "بعداً": 1485,
      "فره": 1486,
      "آشنا": 1487,
      "انگشت": 1488,
      "ساعت": 1489,
      "تصوی": 1490,
      "سایه": 1491,
      "اوقات": 1492,
      "خانه‌اش": 1493,
      "مدت": 1494,
      "گشتند": 1495,
      "همه‌": 1496,
      "مسیر": 1497,
      "يك": 1498,
      "کیف": 1499,
      "تور": 1500,
      "برخورد": 1501,
      "عروسکی": 1502,
      "ترسناک": 1503,
      "عمی": 1504,
      "پول": 1505,
      "برگشتن": 1506,
      "روم": 1507,
      "تکه": 1508,
      "فاو": 1509,
      "دوستانه": 1510,
      "زمانی": 1511,
      "علاق": 1512,
      "‌طور": 1513,
      "علاقه": 1514,
      "فل": 1515,
      "کمان": 1516,
      "می‌پرید": 1517,
      "رض": 1518,
      "لي": 1519,
      "برویم": 1520,
      "دوستت": 1521,
      "مردی": 1522,
      "هنگام": 1523,
      "سکه": 1524,
      "می‌خورد": 1525,
      "جیغ": 1526,
      "توانم": 1527,
      "بط": 1528,
      "بشه": 1529,
      "عزی": 1530,
      "وسای": 1531,
      "اوه": 1532,
      "بازی‌ها": 1533,
      "کشف": 1534,
      "بسازد": 1535,
      "بدجنس": 1536,
      "میتو": 1537,
      "پریدند": 1538,
      "واقعاً": 1539,
      "مداد": 1540,
      "بیلی": 1541,
      "رفتار": 1542,
      "واقعی": 1543,
      "مغازه": 1544,
      "نقشه": 1545,
      "خم": 1546,
      "وال": 1547,
      "می‌رس": 1548,
      "بوده": 1549,
      "الان": 1550,
      "بالاتر": 1551,
      "بوی": 1552,
      "گیاه": 1553,
      "پشیم": 1554,
      "وحشت": 1555,
      "وسایل": 1556,
      "بره": 1557,
      "حق": 1558,
      "مف": 1559,
      "بردارد": 1560,
      "وص": 1561,
      "ایمن": 1562,
      "بعضی": 1563,
      "خواهش": 1564,
      "متاسفم": 1565,
      "آره": 1566,
      "يم": 1567,
      "انتخ": 1568,
      "منتظره": 1569,
      "انتخاب": 1570,
      "ببر": 1571,
      "خجال": 1572,
      "درآورد": 1573,
      "تنهایی": 1574,
      "چشمان": 1575,
      "آه": 1576,
      "انند": 1577,
      "لاً": 1578,
      "پرسد": 1579,
      "قفسه": 1580,
      "میان": 1581,
      "اسباب‌بازی‌هایش": 1582,
      "گذاشتن": 1583,
      "بماند": 1584,
      "نداد": 1585,
      "راکی": 1586,
      "ساله": 1587,
      "دود": 1588,
      "صاح": 1589,
      "صدف": 1590,
      "ترک": 1591,
      "نشسته": 1592,
      "آمده": 1593,
      "می‌آید": 1594,
      "ظرف": 1595,
      "دفت": 1596,
      "پدید": 1597,
      "می‌دوید": 1598,
      "شنیدند": 1599,
      "نشون": 1600,
      "اضاف": 1601,
      "أسف": 1602,
      "زم": 1603,
      "ندار": 1604,
      "اشتباه": 1605,
      "درختی": 1606,
      "بدا": 1607,
      "روح": 1608,
      "تول": 1609,
      "پارچه": 1610,
      "هیچ‌": 1611,
      "حلقه": 1612,
      "سطل": 1613,
      "طی": 1614,
      "ه‌دار": 1615,
      "شگفت‌انگی": 1616,
      "ممکن": 1617,
      "هدیه": 1618,
      "حوضچه": 1619,
      "جاست": 1620,
      "رسی": 1621,
      "میمون": 1622,
      "می‌خواند": 1623,
      "تم": 1624,
      "خطر": 1625,
      "چال": 1626,
      "لوچه": 1627,
      "متفاو": 1628,
      "باشم": 1629,
      "تصویر": 1630,
      "خنده": 1631,
      "زبان": 1632,
      "بیاید": 1633,
      "می‌خوای": 1634,
      "رودخانه": 1635,
      "موفق": 1636,
      "بسته": 1637,
      "مود": 1638,
      "هستید": 1639,
      "ببین": 1640,
      "چراغ": 1641,
      "مشکلی": 1642,
      "والدی": 1643,
      "آل": 1644,
      "جر": 1645,
      "نمی‌کرد": 1646,
      "کمکت": 1647,
      "گذراند": 1648,
      "دکمه": 1649,
      "مدرسه": 1650,
      "خش": 1651,
      "وند": 1652,
      "می‌گویند": 1653,
      "اعتما": 1654,
      "دند": 1655,
      "صف": 1656,
      "می‌گذراندند": 1657,
      "ریختگی": 1658,
      "قلو": 1659,
      "دهانش": 1660,
      "بچه‌های": 1661,
      "جالبی": 1662,
      "اعتماد": 1663,
      "لرز": 1664,
      "مشت": 1665,
      "کرم": 1666,
      "سوپ": 1667,
      "درختان": 1668,
      "سریع‌تر": 1669,
      "پذی": 1670,
      "رمرد": 1671,
      "گیرند": 1672,
      "زنگ": 1673,
      "وزید": 1674,
      "دوقلو": 1675,
      "ویس": 1676,
      "می‌دانم": 1677,
      "آورده": 1678,
      "بون": 1679,
      "تال": 1680,
      "وه‌ای": 1681,
      "مومو": 1682,
      "پاک": 1683,
      "آی": 1684,
      "ئو": 1685,
      "اژ": 1686,
      "ببخشید": 1687,
      "کاس": 1688,
      "می‌ترسید": 1689,
      "این‌": 1690,
      "شکل": 1691,
      "بگیرند": 1692,
      "ذوق": 1693,
      "اژد": 1694,
      "توت": 1695,
      "خرید": 1696,
      "پرنده‌ای": 1697,
      "خلاق": 1698,
      "نور": 1699,
      "پاش": 1700,
      "نزدیک‌تر": 1701,
      "مخلو": 1702,
      "مي‌": 1703,
      "خانواده‌اش": 1704,
      "دان": 1705,
      "نوبتی": 1706,
      "باهاش": 1707,
      "یو": 1708,
      "خوشی": 1709,
      "گیرد": 1710,
      "شیشه": 1711,
      "می‌تونست": 1712,
      "ابان": 1713,
      "سرا": 1714,
      "فان": 1715,
      "نخ": 1716,
      "رنگین": 1717,
      "خردمند": 1718,
      "بکشد": 1719,
      "متأسف": 1720,
      "دریاچه": 1721,
      "مخلوط": 1722,
      "بمان": 1723,
      "دقی": 1724,
      "فس": 1725,
      "داغ": 1726,
      "پیرمرد": 1727,
      "ترا": 1728,
      "پاد": 1729,
      "کلی": 1730,
      "روست": 1731,
      "ناپدید": 1732,
      "بخورند": 1733,
      "می‌خواهند": 1734,
      "تلف": 1735,
      "قد": 1736,
      "پست": 1737,
      "گری": 1738,
      "مولی": 1739,
      "اسباب‌بازی‌های": 1740,
      "اتوبوس": 1741,
      "حفره": 1742,
      "سبد": 1743,
      "ظاهر": 1744,
      "می‌کنه": 1745,
      "برگ‌ها": 1746,
      "می‌توانید": 1747,
      "دنیا": 1748,
      "پادشاه": 1749,
      "بادباد": 1750,
      "آلود": 1751,
      "ماشین‌ها": 1752,
      "مختلف": 1753,
      "تالاب": 1754,
      "حد": 1755,
      "دقت": 1756,
      "هوی": 1757,
      "برف": 1758,
      "قهوه‌ای": 1759,
      "نمی‌دانستند": 1760,
      "عجیب": 1761,
      "بوته": 1762,
      "عن": 1763,
      "بزرگش": 1764,
      "اشک": 1765,
      "سالم": 1766,
      "خوشمز": 1767,
      "امید": 1768,
      "پنیر": 1769,
      "دوند": 1770,
      "تز": 1771,
      "کاو": 1772,
      "ه‌شان": 1773,
      "بسیاری": 1774,
      "ببینیم": 1775,
      "حمام": 1776,
      "خنک": 1777,
      "بازی‌هایش": 1778,
      "خیابان": 1779,
      "زمینی": 1780,
      "نوزاد": 1781,
      "می‌زدند": 1782,
      "می‌شوند": 1783,
      "دوستانشان": 1784,
      "خودشان": 1785,
      "عسل": 1786,
      "میکرد": 1787,
      "شتی": 1788,
      "البت": 1789,
      "هیو": 1790,
      "خواندن": 1791,
      "البته": 1792,
      "ندیده": 1793,
      "ازد": 1794,
      "گفته": 1795,
      "مهربون": 1796,
      "تعقی": 1797,
      "ملای": 1798,
      "مشکل": 1799,
      "هیولا": 1800,
      "لان": 1801,
      "پرد": 1802,
      "متعل": 1803,
      "دارید": 1804,
      "متعلق": 1805,
      "انت": 1806,
      "می‌کنیم": 1807,
      "بازی‌های": 1808,
      "شویم": 1809,
      "کاسه": 1810,
      "تعقیب": 1811,
      "تلوی": 1812,
      "دای": 1813,
      "خندیدن": 1814,
      "سرگرم‌کننده": 1815,
      "ساختن": 1816,
      "دکتر": 1817,
      "تلویزی": 1818,
      "چا": 1819,
      "موا": 1820,
      "رنگ‌های": 1821,
      "آخ": 1822,
      "طوفان": 1823,
      "آزاد": 1824,
      "خاکست": 1825,
      "هویج": 1826,
      "کاوش": 1827,
      "نار": 1828,
      "بنفش": 1829,
      "رقصیدن": 1830,
      "ذرت": 1831,
      "تلویزیون": 1832,
      "برم": 1833,
      "بشن": 1834,
      "عط": 1835,
      "نمی‌توانم": 1836,
      "پوش": 1837,
      "خوراکی": 1838,
      "درخت‌ها": 1839,
      "بپو": 1840,
      "پیراه": 1841,
      "فشار": 1842,
      "تاز": 1843,
      "کدام": 1844,
      "‌‌": 1845,
      "می‌چرخ": 1846,
      "برفی": 1847,
      "برقص": 1848,
      "تصاو": 1849,
      "گل‌های": 1850,
      "استخر": 1851,
      "راحی": 1852,
      "افتد": 1853,
      "کمد": 1854,
      "ناهار": 1855,
      "می‌تونیم": 1856,
      "نجی": 1857,
      "نوشته": 1858,
      "توانسته": 1859,
      "ندارد": 1860,
      "بهم": 1861,
      "خوشحالم": 1862,
      "غیرمنتظره": 1863,
      "آن‌قدر": 1864,
      "سوت": 1865,
      "انجامش": 1866,
      "مفت": 1867,
      "ناه": 1868,
      "موز": 1869,
      "می‌دهم": 1870,
      "بگیری": 1871,
      "جبور": 1872,
      "بلوک‌ها": 1873,
      "لحظه": 1874,
      "فض": 1875,
      "قو": 1876,
      "مجبور": 1877,
      "ماس": 1878,
      "کوچکش": 1879,
      "پسربچه‌ای": 1880,
      "می‌روند": 1881,
      "می‌زنند": 1882,
      "مرسی": 1883,
      "محبو": 1884,
      "برسد": 1885,
      "برمی‌گرد": 1886,
      "نارنجی": 1887,
      "راهی": 1888,
      "توانی": 1889,
      "خوشگل": 1890,
      "یافت": 1891,
      "زیبای": 1892,
      "پریدن": 1893,
      "عنوان": 1894,
      "آهنگ": 1895,
      "نرد": 1896,
      "نبودند": 1897,
      "می‌شدند": 1898,
      "غلت": 1899,
      "خرچنگ": 1900,
      "خاص": 1901,
      "صورتش": 1902,
      "متفاوت": 1903,
      "شوی": 1904,
      "لئو": 1905,
      "مست": 1906,
      "دربار": 1907,
      "کشیدن": 1908,
      "آسان": 1909,
      "گردن": 1910,
      "نتوانستند": 1911,
      "مارک": 1912,
      "امت": 1913,
      "دوی": 1914,
      "موهای": 1915,
      "راننده": 1916,
      "قطع": 1917,
      "لیزا": 1918,
      "عقب": 1919,
      "انگو": 1920,
      "ویژه‌ای": 1921,
      "عزیزم": 1922,
      "رشد": 1923,
      "صمیمی": 1924,
      "قهر": 1925,
      "کلوچه": 1926,
      "اهمی": 1927,
      "می‌توانستند": 1928,
      "اضافه": 1929,
      "مواظ": 1930,
      "مفتخر": 1931,
      "قهرمان": 1932,
      "آوی": 1933,
      "یمی": 1934,
      "ونه": 1935,
      "قفس": 1936,
      "آرامی": 1937,
      "ایستاد": 1938,
      "دندان": 1939,
      "تلفن": 1940,
      "بادبادک": 1941,
      "ارا": 1942,
      "بیم": 1943,
      "بامزه": 1944,
      "تونست": 1945,
      "کون": 1946,
      "لوله": 1947,
      "تابید": 1948,
      "اسباب‌بازی‌اش": 1949,
      "ساختند": 1950,
      "طوری": 1951,
      "شاهز": 1952,
      "‌ی": 1953,
      "می‌دهند": 1954,
      "بینند": 1955,
      "احتی": 1956,
      "درخشانی": 1957,
      "نمود": 1958,
      "نمایش": 1959,
      "جیک": 1960,
      "رژ": 1961,
      "لغ": 1962,
      "مبل": 1963,
      "نفس": 1964,
      "رایی": 1965,
      "ماندند": 1966,
      "بینی": 1967,
      "درخشید": 1968,
      "لحظه‌ای": 1969,
      "هواپیما": 1970,
      "خطرناک": 1971,
      "مشتاق": 1972,
      "خاکستری": 1973,
      "he": 1974,
      "طراحی": 1975,
      "باور": 1976,
      "رانی": 1977,
      "لیوان": 1978,
      "امنی": 1979,
      "الا": 1980,
      "کوتا": 1981,
      "بردار": 1982,
      "آوری": 1983,
      "وعده": 1984,
      "عمیق": 1985,
      "بطری": 1986,
      "می‌رسد": 1987,
      "تصاویر": 1988,
      "غار": 1989,
      "فرنگی": 1990,
      "ندید": 1991,
      "خوبه": 1992,
      "همه‌ی": 1993,
      "ناراحتی": 1994,
      "پرنده‌ها": 1995,
      "کارهای": 1996,
      "شوم": 1997,
      "پوست": 1998,
      "شادمان": 1999,
      "دعوت": 2000,
      "شدیدی": 2001,
      "\"،": 2002,
      "تمس": 2003,
      "حباب": 2004,
      "ندی": 2005,
      "همدیگر": 2006,
      "بیه": 2007,
      "موشک": 2008,
      "ببینم": 2009,
      "بادکن": 2010,
      "توانند": 2011,
      "دریایی": 2012,
      "شست": 2013,
      "خوششان": 2014,
      "لاک": 2015,
      "می‌کردن": 2016,
      "جیل": 2017,
      "مواظب": 2018,
      "سپاس": 2019,
      "كه": 2020,
      "کف": 2021,
      "اشاره": 2022,
      "خارج": 2023,
      "دزد": 2024,
      "ساند": 2025,
      "چیک": 2026,
      "می‌خند": 2027,
      "افی": 2028,
      "کشاو": 2029,
      "ملحق": 2030,
      "رقصید": 2031,
      "حصار": 2032,
      "بیاورد": 2033,
      "نردبان": 2034,
      "ساندوی": 2035,
      "چیکار": 2036,
      "چاق": 2037,
      "میشه": 2038,
      "بزنند": 2039,
      "دیر": 2040,
      "پاره": 2041,
      "بگیرم": 2042,
      "بخوریم": 2043,
      "تمساح": 2044,
      "بپر": 2045,
      "عظ": 2046,
      "عم": 2047,
      "خوک": 2048,
      "ماه": 2049,
      "!\".": 2050,
      "کارت": 2051,
      "پدرشان": 2052,
      "معل": 2053,
      "فرش": 2054,
      "کشاورز": 2055,
      "بذ": 2056,
      "بخر": 2057,
      "سواری": 2058,
      "آرایش": 2059,
      "اژدها": 2060,
      "جم": 2061,
      "نکردند": 2062,
      "مکع": 2063,
      "شنها": 2064,
      "پیاده": 2065,
      "تل": 2066,
      "زو": 2067,
      "قاشق": 2068,
      "لیسی": 2069,
      "خودت": 2070,
      "تشوی": 2071,
      "فردا": 2072,
      "ازی": 2073,
      "جلوی": 2074,
      "شرم": 2075,
      "دادی": 2076,
      "بودم": 2077,
      "بگیریم": 2078,
      "پشتی": 2079,
      "بسازند": 2080,
      "بگذارند": 2081,
      "بزرگ‌تر": 2082,
      "کوچیک": 2083,
      "شیط": 2084,
      "خودخواه": 2085,
      "نیستند": 2086,
      "ملایم": 2087,
      "تازه": 2088,
      "تکون": 2089,
      "شع": 2090,
      "شم": 2091,
      "میو": 2092,
      "لیمو": 2093,
      "سگش": 2094,
      "محافظ": 2095,
      "همانطور": 2096,
      "وحشی": 2097,
      "چنگال": 2098,
      "انگلیسی": 2099,
      "شاهزاده": 2100,
      "بچی": 2101,
      "فه": 2102,
      "می‌تونه": 2103,
      "زیباست": 2104,
      "بگیره": 2105,
      "برگردد": 2106,
      "اِیمی": 2107,
      "خجالتی": 2108,
      "بادکنک": 2109,
      "ثرو": 2110,
      "می‌آورد": 2111,
      "ماست": 2112,
      "کمکم": 2113,
      "می‌دود": 2114,
      "خي": 2115,
      "عد": 2116,
      "گوسف": 2117,
      "مربا": 2118,
      "شوخی": 2119,
      "خوشمزه‌ای": 2120,
      "بوق": 2121,
      "خالی": 2122,
      "مض": 2123,
      "زیپ": 2124,
      "داشتنی": 2125,
      "منه": 2126,
      "نداشتند": 2127,
      "تولد": 2128,
      "مکعب": 2129,
      "ثروتمند": 2130,
      "نکن": 2131,
      "ونی": 2132,
      "واره": 2133,
      "می‌رود": 2134,
      "منو": 2135,
      "ناامید": 2136,
      "پیشنها": 2137,
      "صاحب": 2138,
      "پذیرایی": 2139,
      "ببند": 2140,
      "جلو": 2141,
      "درو": 2142,
      "شلو": 2143,
      "عش": 2144,
      "عاشق": 2145,
      "پرا": 2146,
      "می‌گیرد": 2147,
      "حالش": 2148,
      "تصور": 2149,
      "کلما": 2150,
      "پشیمان": 2151,
      "پیراهن": 2152,
      "گوسفند": 2153,
      "تغ": 2154,
      "تود": 2155,
      "خام": 2156,
      "پله": 2157,
      "‌ترین": 2158,
      "می‌رفتند": 2159,
      "آنچه": 2160,
      "ساکت": 2161,
      "باله": 2162,
      "تابلو": 2163,
      "کلمه": 2164,
      "نقش": 2165,
      "بیمار": 2166,
      "می‌گفت": 2167,
      "خون": 2168,
      "حالت": 2169,
      "منم": 2170,
      "صداهای": 2171,
      "خواهیم": 2172,
      "قفل": 2173,
      "حشرات": 2174,
      "قایم": 2175,
      "نیمکت": 2176,
      "پیاده‌": 2177,
      "آقا": 2178,
      "صخره": 2179,
      "ضر": 2180,
      "لای": 2181,
      "پاز": 2182,
      "می‌دویدند": 2183,
      "می‌پرسد": 2184,
      "مالی": 2185,
      "موق": 2186,
      "ترش": 2187,
      "حول": 2188,
      "زنده": 2189,
      "غری": 2190,
      "نترس": 2191,
      "بالو": 2192,
      "بلکه": 2193,
      "ویی": 2194,
      "بازي": 2195,
      "ساخته": 2196,
      "رقصیدند": 2197,
      "تغیی": 2198,
      "قار": 2199,
      "پخش": 2200,
      "باند": 2201,
      "ستانی": 2202,
      "روزها": 2203,
      "خنده‌دار": 2204,
      "گوشت": 2205,
      "واخت": 2206,
      "پیشنهاد": 2207,
      "جنی": 2208,
      "دانه": 2209,
      "ربات": 2210,
      "نواخت": 2211,
      "بهم‌": 2212,
      "هستیم": 2213,
      "افتخار": 2214,
      "تخته": 2215,
      "همان‌طور": 2216,
      "کامل": 2217,
      "بداند": 2218,
      "شگفت‌انگیز": 2219,
      "سپاسگ": 2220,
      "ساندویچ": 2221,
      "قیم": 2222,
      "چهار": 2223,
      "کشتی": 2224,
      "می‌افتد": 2225,
      "توضی": 2226,
      "ابت": 2227,
      "شکلات": 2228,
      "رنگ‌ها": 2229,
      "افتادند": 2230,
      "غذایی": 2231,
      "نمی‌توانستند": 2232,
      "فیلم": 2233,
      "والدینش": 2234,
      "صفح": 2235,
      "پازل": 2236,
      "توضیح": 2237,
      "آدم": 2238,
      "زشت": 2239,
      "صاف": 2240,
      "عرض": 2241,
      "می‌تابید": 2242,
      "منحص": 2243,
      "موجود": 2244,
      "شانه": 2245,
      "نوشت": 2246,
      "تغییر": 2247,
      "منحصر": 2248,
      "دهم": 2249,
      "چک": 2250,
      "کافی": 2251,
      "می‌گیرند": 2252,
      "اور": 2253,
      "ارزش": 2254,
      "تختش": 2255,
      "قابل": 2256,
      "علاقه‌اش": 2257,
      "درباره‌ی": 2258,
      "جوان": 2259,
      "شکر": 2260,
      "عوض": 2261,
      "فنج": 2262,
      "انو": 2263,
      "کارش": 2264,
      "سبزی": 2265,
      "خط": 2266,
      "عمل": 2267,
      "باباش": 2268,
      "بازیش": 2269,
      "موتور": 2270,
      "همهٔ": 2271,
      "قدرتمند": 2272,
      "پوشیده": 2273,
      "رانندگی": 2274,
      "پخت": 2275,
      "کمر": 2276,
      "میک": 2277,
      "سازی": 2278,
      "سهیم": 2279,
      "خاموش": 2280,
      "an": 2281,
      "the": 2282,
      "ديد": 2283,
      "پلیس": 2284,
      "همگی": 2285,
      "پیدایش": 2286,
      "تشویق": 2287,
      "بي": 2288,
      "تنگ": 2289,
      "لگ": 2290,
      "خوان": 2291,
      "فته": 2292,
      "توش": 2293,
      "نوشید": 2294,
      "قدرت": 2295,
      "دلش": 2296,
      "چشمانش": 2297,
      "دایره": 2298,
      "لگد": 2299,
      "آسی": 2300,
      "سن": 2301,
      "فلو": 2302,
      "می‌شن": 2303,
      "بالش": 2304,
      "کوچولوی": 2305,
      "ماشینش": 2306,
      "پایش": 2307,
      "قیچی": 2308,
      "مادربزرگش": 2309,
      "احمقانه": 2310,
      "لاک‌": 2311,
      "کلمات": 2312,
      "پیاده‌روی": 2313,
      "اگه": 2314,
      "فلف": 2315,
      "توجه": 2316,
      "گوزن": 2317,
      "سرخ": 2318,
      "باغچه": 2319,
      "بپوشد": 2320,
      "آور": 2321,
      "نکند": 2322,
      "گرو": 2323,
      "شیند": 2324,
      "احترا": 2325,
      "بردن": 2326,
      "بشقاب": 2327,
      "تخم": 2328,
      "یخچال": 2329,
      "آموختند": 2330,
      "بگرد": 2331,
      "تيم": 2332,
      "سلی": 2333,
      "سمه": 2334,
      "مغرور": 2335,
      "نمی‌دانم": 2336,
      "چید": 2337,
      "چنین": 2338,
      "دوان": 2339,
      "موج": 2340,
      "بدهی": 2341,
      "اطرافش": 2342,
      "عشق": 2343,
      "ئه": 2344,
      "جت": 2345,
      "حین": 2346,
      "شل": 2347,
      "روش": 2348,
      "کوه": 2349,
      "بگیر": 2350,
      "ساختمان": 2351,
      "موقع": 2352,
      "فلفل": 2353,
      "re": 2354,
      "اين": 2355,
      "حمل": 2356,
      "مص": 2357,
      "می‌کنید": 2358,
      "امد": 2359,
      "موم": 2360,
      "خانه‌ی": 2361,
      "ماشین‌های": 2362,
      "نوازش": 2363,
      "گذاشته": 2364,
      "ترسیدند": 2365,
      "ماهی‌ها": 2366,
      "کشند": 2367,
      "تمرین": 2368,
      "محبوب": 2369,
      "احتیاط": 2370,
      "بابی": 2371,
      "بزرگتر": 2372,
      "سنگ‌ها": 2373,
      "برداشتند": 2374,
      "دنبالش": 2375,
      "غذاهای": 2376,
      "هیچوقت": 2377,
      "مجسمه": 2378,
      "متأسفم": 2379,
      "لاک‌پشت": 2380,
      "عبور": 2381,
      "مدا": 2382,
      "گند": 2383,
      "‌و": 2384,
      "میاد": 2385,
      "کردیم": 2386,
      "ماسه": 2387,
      "پرش": 2388,
      "تیز": 2389,
      "دست‌هایش": 2390,
      "اونجا": 2391,
      "آبمیوه": 2392,
      "سرگرمی": 2393,
      "خوابش": 2394,
      "هوم": 2395,
      "مفید": 2396,
      "اهمیت": 2397,
      "تست": 2398,
      "صبور": 2399,
      "اولی": 2400,
      "خیره": 2401,
      "پدربزرگ": 2402,
      "جیبش": 2403,
      "خوشبختانه": 2404,
      "معلم": 2405,
      "بالون": 2406,
      "بهم‌ریختگی": 2407,
      "زباله": 2408,
      "عنک": 2409,
      "نمی‌توانی": 2410,
      "گذشته": 2411,
      "متع": 2412,
      "کرز": 2413,
      "ویل": 2414,
      "نوار": 2415,
      "جیمی": 2416,
      "سالاد": 2417,
      "دفترچه": 2418,
      "ندارم": 2419,
      "ویسکرز": 2420,
      "جری": 2421,
      "جاده": 2422,
      "عمو": 2423,
      "ِه": 2424,
      "پتو": 2425,
      "بزنه": 2426,
      "دهیم": 2427,
      "بخوره": 2428,
      "معمولی": 2429,
      "بخرد": 2430,
      "قطعات": 2431,
      "محافظت": 2432,
      "جدا": 2433,
      "پي": 2434,
      "میخواست": 2435,
      "می‌گشت": 2436,
      "کردید": 2437,
      "ایت": 2438,
      "سور": 2439,
      "برند": 2440,
      "بررسی": 2441,
      "جاق": 2442,
      "بخورم": 2443,
      "بلوط": 2444,
      "مغز": 2445,
      "برادرش": 2446,
      "مفهوم": 2447,
      "هیچ‌کس": 2448,
      "سپاسگزار": 2449,
      "غاز": 2450,
      "قلب": 2451,
      "گي": 2452,
      "می‌دادند": 2453,
      "برمی": 2454,
      "اونو": 2455,
      "پرسیدند": 2456,
      "جوراب": 2457,
      "جواهر": 2458,
      "قرمزش": 2459,
      "بخوابد": 2460,
      "دربارهٔ": 2461,
      "مجروح": 2462,
      "دفتر": 2463,
      "روستا": 2464,
      "ئی": 2465,
      "جیم": 2466,
      "چس": 2467,
      "کدو": 2468,
      "فهمیدند": 2469,
      "امنیت": 2470,
      "بگوید": 2471,
      "شمرد": 2472,
      "نمی‌خواستند": 2473,
      "هرد": 2474,
      "چکش": 2475,
      "برق": 2476,
      "لبخندی": 2477,
      "نوبت": 2478,
      "علامت": 2479,
      "توده": 2480,
      ":«": 2481,
      "کجاست": 2482,
      "گناه": 2483,
      "درخواست": 2484,
      "یکل": 2485,
      "ادت": 2486,
      "سین": 2487,
      "برایت": 2488,
      "گذشت": 2489,
      "برچسب": 2490,
      "جدیدشان": 2491,
      "بارها": 2492,
      "شناخت": 2493,
      "غرش": 2494,
      "تازه‌ای": 2495,
      "حوله": 2496,
      "تری": 2497,
      "استیک": 2498,
      "گیل": 2499,
      "چرت": 2500,
      "نمی‌شد": 2501,
      "آرامش": 2502,
      "بکند": 2503,
      "طبل": 2504,
      "روسری": 2505,
      "کرده‌اند": 2506,
      "دوست‌": 2507,
      "دستکش": 2508,
      "یادداشت": 2509,
      "مثلث": 2510,
      "مراقب‌تر": 2511,
      "کتاب‌ها": 2512,
      "فرست": 2513,
      "کادو": 2514,
      "فروشنده": 2515,
      "دریافت": 2516,
      "مقداری": 2517,
      "چشم‌هایش": 2518,
      "بذار": 2519,
      "احترام": 2520,
      ":”": 2521,
      "حک": 2522,
      "شبیه": 2523,
      "فلا": 2524,
      "می‌دونست": 2525,
      "می‌دوند": 2526,
      "کوکی": 2527,
      "کتابخانه": 2528,
      "اردک‌ها": 2529,
      "انگار": 2530,
      "وصل": 2531,
      "ابتدا": 2532,
      "فنجان": 2533,
      "آهست": 2534,
      "خمیر": 2535,
      "چای": 2536,
      "یع": 2537,
      "رای": 2538,
      "زیرا": 2539,
      "رمان": 2540,
      "خواندند": 2541,
      "امیدوارم": 2542,
      "برقصد": 2543,
      "شلوار": 2544,
      "».": 2545,
      "گود": 2546,
      "گونه": 2547,
      "می‌خندید": 2548,
      "می‌بردند": 2549,
      "مور": 2550,
      "پیام": 2551,
      "قرمزی": 2552,
      "گردان": 2553,
      "ته": 2554,
      "تسلی": 2555,
      "لک": 2556,
      "گربه‌ای": 2557,
      "تموم": 2558,
      "وشی": 2559,
      "پولی": 2560,
      "دونم": 2561,
      "کوسه": 2562,
      "نیامد": 2563,
      "ترتی": 2564,
      "خانهٔ": 2565,
      "مربع": 2566,
      "شوید": 2567,
      "شجاعت": 2568,
      "جویبار": 2569,
      "پشم": 2570,
      "انگور": 2571,
      "فلافی": 2572,
      "تسلیم": 2573,
      "ردست": 2574,
      "می‌پریدند": 2575,
      "دوردست": 2576,
      "دوستای": 2577,
      "دستبند": 2578,
      "شنبه": 2579,
      "ببینه": 2580,
      "پشمک": 2581,
      "حسادت": 2582,
      "سراسر": 2583,
      "ترتیب": 2584,
      "ساز": 2585,
      "طل": 2586,
      "فک": 2587,
      "فهم": 2588,
      "قرض": 2589,
      "کبو": 2590,
      "گا": 2591,
      "می‌دید": 2592,
      "استخوان": 2593,
      "می‌خواستم": 2594,
      "ویش": 2595,
      "برگ‌های": 2596,
      "بروم": 2597,
      "پرنده‌ی": 2598,
      "بابایش": 2599,
      "آهن": 2600,
      "گودال": 2601,
      "at": 2602,
      "بسازی": 2603,
      "تنه": 2604,
      "دي": 2605,
      "صوص": 2606,
      "مهمی": 2607,
      "دهی": 2608,
      "بنشیند": 2609,
      "دستی": 2610,
      "حرف‌های": 2611,
      "کنارش": 2612,
      "قشنگی": 2613,
      "فلوت": 2614,
      "گندم": 2615,
      "نمی‌تواند": 2616,
      "باهی": 2617,
      "امان": 2618,
      "اسلح": 2619,
      "موض": 2620,
      "بلندتر": 2621,
      "پاسخ": 2622,
      "می‌خواندند": 2623,
      "بتو": 2624,
      "جزی": 2625,
      "عادی": 2626,
      "ستار": 2627,
      "مانده": 2628,
      "ادب": 2629,
      "گذاری": 2630,
      "گذروند": 2631,
      "انداز": 2632,
      "برآورده": 2633,
      "پیو": 2634,
      "یک‌روز": 2635,
      "دنیای": 2636,
      "ببرند": 2637,
      "کوتاه": 2638,
      "عنکبوت": 2639,
      "کبوتر": 2640,
      "موضوع": 2641,
      "آخر": 2642,
      "طلو": 2643,
      "نت": 2644,
      "َم": 2645,
      "چتر": 2646,
      "می‌درخشید": 2647,
      "درسی": 2648,
      "نادر": 2649,
      "نهنگ": 2650,
      "بروکلی": 2651,
      "قطعه": 2652,
      "فشرد": 2653,
      "جادوگر": 2654,
      "قشنگه": 2655,
      "اِمی": 2656,
      "طلوع": 2657,
      "ar": 2658,
      "آبن": 2659,
      "َن": 2660,
      "پن": 2661,
      "شدم": 2662,
      "بازی‌اش": 2663,
      "ه‌ات": 2664,
      "لابی": 2665,
      "سوزی": 2666,
      "عروسکش": 2667,
      "اشکال": 2668,
      "گیلاس": 2669,
      "آهسته": 2670,
      "جزیره": 2671,
      "بچرخ": 2672,
      "پتوی": 2673,
      "گرگ": 2674,
      "بیفت": 2675,
      "لباس‌های": 2676,
      "میتونم": 2677,
      "on": 2678,
      "راست": 2679,
      "ارند": 2680,
      "پیداش": 2681,
      "خورده": 2682,
      "قبلاً": 2683,
      "اصلا": 2684,
      "پذیر": 2685,
      "کمربند": 2686,
      "آروم": 2687,
      "بنام": 2688,
      "حتما": 2689,
      "فند": 2690,
      "نیک": 2691,
      "نکرده": 2692,
      "پین": 2693,
      "بای": 2694,
      "روف": 2695,
      "شدی": 2696,
      "لونا": 2697,
      "اسمش": 2698,
      "نمی‌آمد": 2699,
      "پوزش": 2700,
      "کیکی": 2701,
      "تماش": 2702,
      "دانستند": 2703,
      "می‌چرخید": 2704,
      "رژه": 2705,
      "متعجب": 2706,
      "ریل": 2707,
      "مهره": 2708,
      "بخوری": 2709,
      "نمی‌دونست": 2710,
      "کاملاً": 2711,
      "علف‌ها": 2712,
      "بخند": 2713,
      "بتوانیم": 2714,
      "گلابی": 2715,
      "میله": 2716,
      "بعدش": 2717,
      "چکمه": 2718,
      "آبنبات": 2719,
      "شوق": 2720,
      "طعم": 2721,
      "نمی‌تونست": 2722,
      "هش": 2723,
      "خوش‌شان": 2724,
      "بنو": 2725,
      "سرشان": 2726,
      "وانمود": 2727,
      "خربز": 2728,
      "تنبل": 2729,
      "فرود": 2730,
      "مهمونی": 2731,
      "ملکه": 2732,
      "برگردان": 2733,
      "بدهیم": 2734,
      "کاغذی": 2735,
      "مورچه‌ها": 2736,
      "پلنگ": 2737,
      "گیاهان": 2738,
      "خجالت": 2739,
      "جمجمه": 2740,
      "وحش": 2741,
      "ماد": 2742,
      "بزن": 2743,
      "چهره": 2744,
      "ابون": 2745,
      "دلق": 2746,
      "پاشید": 2747,
      "عطسه": 2748,
      "نقشه‌ای": 2749,
      "صفحه": 2750,
      "اک": 2751,
      "تشک": 2752,
      "شال": 2753,
      "میخ": 2754,
      "پسرکی": 2755,
      "سختی": 2756,
      "اتوم": 2757,
      "کاب": 2758,
      "گران": 2759,
      "یکبار": 2760,
      "توله": 2761,
      "برخی": 2762,
      "دستمال": 2763,
      "شناور": 2764,
      "پاهای": 2765,
      "تاریکی": 2766,
      "هواپیمای": 2767,
      "آویزان": 2768,
      "دلقک": 2769,
      "اتومبیل": 2770,
      "جات": 2771,
      "دلی": 2772,
      "ضبط": 2773,
      "ظریف": 2774,
      "چه‌ای": 2775,
      "روصدا": 2776,
      "همکاری": 2777,
      "بزار": 2778,
      "پرچ": 2779,
      "موتو": 2780,
      "سوال": 2781,
      "اسپا": 2782,
      "کلاس": 2783,
      "باریدن": 2784,
      "اگرچه": 2785,
      "بدهند": 2786,
      "مخصوص": 2787,
      "چندتا": 2788,
      "همین‌طور": 2789,
      "خواهرش": 2790,
      "آینه": 2791,
      "چاپ": 2792,
      "یت": 2793,
      "می‌گه": 2794,
      "ازم": 2795,
      "توست": 2796,
      "تاج": 2797,
      "موعظ": 2798,
      "هیول": 2799,
      "امیلی": 2800,
      "پهن": 2801,
      "تماشای": 2802,
      "سان": 2803,
      "عاد": 2804,
      "کتو": 2805,
      "گچ": 2806,
      "داین": 2807,
      "موهایش": 2808,
      "گوشه": 2809,
      "پیتز": 2810,
      "بدم": 2811,
      "کاکتو": 2812,
      "ستاره‌ها": 2813,
      "دودکش": 2814,
      "لرزیدن": 2815,
      "سراغ": 2816,
      "می‌خندند": 2817,
      "بخرند": 2818,
      "سبزیجات": 2819,
      "دوست‌داشتنی": 2820,
      "بسازیم": 2821,
      "خربزه": 2822,
      "خست": 2823,
      "زي": 2824,
      "نتونست": 2825,
      "خوام": 2826,
      "همزمان": 2827,
      "برایشان": 2828,
      "رساند": 2829,
      "توپی": 2830,
      "پیاز": 2831,
      "برداشتن": 2832,
      "کلاهش": 2833,
      "پزشک": 2834,
      "جستجوی": 2835,
      "شگفت‌انگیزی": 2836,
      "شمشیر": 2837,
      "کاکتوس": 2838,
      "آلو": 2839,
      "اجاق": 2840,
      "خص": 2841,
      "ره‌ای": 2842,
      "‌آلود": 2843,
      "انعط": 2844,
      "داند": 2845,
      "توبی": 2846,
      "رویا": 2847,
      "برده": 2848,
      "نگاهی": 2849,
      "مرک": 2850,
      "پاهایش": 2851,
      "تحسین": 2852,
      "تقری": 2853,
      "عالیه": 2854,
      "ذوق‌زده": 2855,
      "حدس": 2856,
      "ببندد": 2857,
      "انعطاف": 2858,
      "..": 2859,
      "جذ": 2860,
      "سس": 2861,
      "راند": 2862,
      "می‌کنن": 2863,
      "توقف": 2864,
      "شانس": 2865,
      "خانگی": 2866,
      "دوستانی": 2867,
      "مرده": 2868,
      "فاص": 2869,
      "کسل": 2870,
      "جعبه‌ای": 2871,
      "سنگی": 2872,
      "بخور": 2873,
      "جیپ": 2874,
      "معذرت": 2875,
      "جایزه": 2876,
      "بخشی": 2877,
      "پنجه": 2878,
      "این‌قدر": 2879,
      "زوم": 2880,
      "تقریبا": 2881,
      "اي": 2882,
      "خبر": 2883,
      "رخت": 2884,
      "مایش": 2885,
      "چطوری": 2886,
      "کلا": 2887,
      "گرما": 2888,
      "نگو": 2889,
      "مناسب": 2890,
      "می‌تون": 2891,
      "آزمایش": 2892,
      "پشیمانی": 2893,
      "بچیند": 2894,
      "اسلحه": 2895,
      "گذروندن": 2896,
      "بنی": 2897,
      "شش": 2898,
      "صابون": 2899,
      "هوش": 2900,
      "می‌گرفت": 2901,
      "می‌کشید": 2902,
      "همسایه": 2903,
      "نگی": 2904,
      "جوجه": 2905,
      "آسمون": 2906,
      "عصا": 2907,
      "عصای": 2908,
      "مندی": 2909,
      "ریخته": 2910,
      "ایستگاه": 2911,
      "دقیقا": 2912,
      "انتهای": 2913,
      "شعر": 2914,
      "ضربه": 2915,
      "مدال": 2916,
      "ere": 2917,
      "tr": 2918,
      "بخاطر": 2919,
      "تف": 2920,
      "عج": 2921,
      "كند": 2922,
      "هلو": 2923,
      "پزی": 2924,
      "می‌ن": 2925,
      "روزهای": 2926,
      "اسور": 2927,
      "بزنم": 2928,
      "تیره": 2929,
      "ورزش": 2930,
      "وانه": 2931,
      "آفتابگردان": 2932,
      "توانید": 2933,
      "یک‌بار": 2934,
      "ایستاده": 2935,
      "میان‌": 2936,
      "قیمت": 2937,
      "هردو": 2938,
      "پرچم": 2939,
      "دایناسور": 2940,
      "is": 2941,
      "بمو": 2942,
      "روندند": 2943,
      "می‌رقصید": 2944,
      "دوستا": 2945,
      "ادل": 2946,
      "بزنیم": 2947,
      "دسترسی": 2948,
      "بازار": 2949,
      "نوعی": 2950,
      "بدهم": 2951,
      "ببینی": 2952,
      "مسخره": 2953,
      "نمی‌کنم": 2954,
      "کارو": 2955,
      "همه‌جا": 2956,
      "عمیقی": 2957,
      "غریبه": 2958,
      "پيدا": 2959,
      "یکلت": 2960,
      "هشدار": 2961,
      "سقف": 2962,
      "غی": 2963,
      "گلی": 2964,
      "می‌کشد": 2965,
      "هاش": 2966,
      "ودی": 2967,
      "دواج": 2968,
      "ازدواج": 2969,
      "پرتق": 2970,
      "اهده": 2971,
      "بالاخره": 2972,
      "نزدیکی": 2973,
      "جنگلی": 2974,
      "مشاهده": 2975,
      "دعا": 2976,
      "آرزوی": 2977,
      "بیایند": 2978,
      "بلوک‌های": 2979,
      "بگذاریم": 2980,
      "چاله": 2981,
      "دقیقه": 2982,
      "روستای": 2983,
      "غلتید": 2984,
      "دروازه": 2985,
      "هیولای": 2986,
      "فاصله": 2987,
      "ion": 2988,
      "رف": 2989,
      "غال": 2990,
      "لفی": 2991,
      "مؤ": 2992,
      "مَ": 2993,
      "مسی": 2994,
      "ناد": 2995,
      "کرگ": 2996,
      "کره": 2997,
      "اوست": 2998,
      "ریس": 2999,
      "ناکی": 3000,
      "هرچه": 3001,
      "تنق": 3002,
      "بدوند": 3003,
      "شاهدخت": 3004,
      "غافلگیر": 3005,
      "بوسید": 3006,
      "مختلفی": 3007,
      "بشنود": 3008,
      "ارائه": 3009,
      "lat": 3010,
      "آلیس": 3011,
      "جدی": 3012,
      "خشن": 3013,
      "سمور": 3014,
      "نخورد": 3015,
      "پت": 3016,
      "انبار": 3017,
      "روبان": 3018,
      "ماهر": 3019,
      "دوستشان": 3020,
      "متر": 3021,
      "رسیدن": 3022,
      "دارن": 3023,
      "سنگ‌های": 3024,
      "کلم": 3025,
      "برداشته": 3026,
      "کشیده": 3027,
      "توانستند": 3028,
      "خاط": 3029,
      "جالبه": 3030,
      "شنیده": 3031,
      "خواب‌آلود": 3032,
      "لباس‌ها": 3033,
      "چشمک": 3034,
      "آشپزی": 3035,
      "موافق": 3036,
      "دوقلوهایی": 3037,
      "بمانند": 3038,
      "گردنبند": 3039,
      "اولین": 3040,
      "موتورس": 3041,
      "کرگدن": 3042,
      "slat": 3043,
      "ت‌": 3044,
      "جون": 3045,
      "حم": 3046,
      "‌کنند": 3047,
      "درک": 3048,
      "گره": 3049,
      "گیتار": 3050,
      "نیفت": 3051,
      "مواد": 3052,
      "سوزن": 3053,
      "نام‌های": 3054,
      "کارشان": 3055,
      "پسرک": 3056,
      "اسباب‌بازی‌هایشان": 3057,
      "نیستی": 3058,
      "آوردند": 3059,
      "چرخیدن": 3060,
      "می‌خواهیم": 3061,
      "مرغابی": 3062,
      "چشم‌های": 3063,
      "بداخلاق": 3064,
      "آسانسور": 3065,
      "anslat": 3066,
      "بفهم": 3067,
      "دانش": 3068,
      "سمی": 3069,
      "شنی": 3070,
      "فوت": 3071,
      "نباشد": 3072,
      "نمی‌خواهد": 3073,
      "وفا": 3074,
      "وزن": 3075,
      "چگونه": 3076,
      "‌که": 3077,
      "خوش‌": 3078,
      "گیج": 3079,
      "منظره": 3080,
      "لاب": 3081,
      "اشتباهی": 3082,
      "برنداشت": 3083,
      "برگزار": 3084,
      "بولان": 3085,
      "آوو": 3086,
      "کلبه": 3087,
      "گردند": 3088,
      "خوابید": 3089,
      "ممنونم": 3090,
      "آتش‌": 3091,
      "آمبولان": 3092,
      "می‌گذارد": 3093,
      "می‌خوردند": 3094,
      "میتونی": 3095,
      "یعنی": 3096,
      "translat": 3097,
      "مؤد": 3098,
      "بتوانم": 3099,
      "تاری": 3100,
      "زرا": 3101,
      "شخص": 3102,
      "ضعی": 3103,
      "ظار": 3104,
      "نشده": 3105,
      "َر": 3106,
      "کبری": 3107,
      "خوای": 3108,
      "پرندهٔ": 3109,
      "دهید": 3110,
      "دنباله‌دار": 3111,
      "بپوش": 3112,
      "زانو": 3113,
      "صاحبش": 3114,
      "ویسد": 3115,
      "مستقل": 3116,
      "موعظه": 3117,
      "!”": 3118,
      "فن": 3119,
      "وسط": 3120,
      "انه‌ای": 3121,
      "می‌ترس": 3122,
      "شده‌اند": 3123,
      "گفتن": 3124,
      "اینه": 3125,
      "برید": 3126,
      "سرباز": 3127,
      "خودکار": 3128,
      "افرا": 3129,
      "باشگاه": 3130,
      "ماهیگیر": 3131,
      "نمی‌داد": 3132,
      "زودتر": 3133,
      "عروسک‌ها": 3134,
      "جمع‌": 3135,
      "فضای": 3136,
      "تلخ": 3137,
      "گروه": 3138,
      "پیتزا": 3139,
      "عجله": 3140,
      "ئین": 3141,
      "بِ": 3142,
      "زنج": 3143,
      "مسا": 3144,
      "وس": 3145,
      "وفل": 3146,
      "‌ات": 3147,
      "ندیدند": 3148,
      "می‌پوشید": 3149,
      "یمان": 3150,
      "بزنی": 3151,
      "دیدم": 3152,
      "سوخت": 3153,
      "مدام": 3154,
      "بال‌هایش": 3155,
      "خریدند": 3156,
      "بگذرانند": 3157,
      "طوطی": 3158,
      "باهات": 3159,
      "هدیه‌ای": 3160,
      "صبحانه": 3161,
      "كردند": 3162,
      "ندارند": 3163,
      "تزئین": 3164,
      "پرداخت": 3165,
      "لغزید": 3166,
      "آسیاب": 3167,
      "جذاب": 3168,
      "آمبولانس": 3169,
      "translation": 3170,
      ".”": 3171,
      "Here": 3172,
      "ببریم": 3173,
      "رؤ": 3174,
      "صلی": 3175,
      "پیک": 3176,
      "پشه": 3177,
      "چي": 3178,
      "کای": 3179,
      "باحال": 3180,
      "کهنه": 3181,
      "خانه‌شان": 3182,
      "ابری": 3183,
      "رسیده": 3184,
      "کیفش": 3185,
      "خودم": 3186,
      "بازگشت": 3187,
      "گلدان": 3188,
      "نمی‌ترسید": 3189,
      "صحنه": 3190,
      "مجله": 3191,
      "همه‌چیز": 3192,
      "لرزید": 3193,
      "قارچ": 3194,
      "آووکادو": 3195,
      "آتش‌نشان": 3196,
      "زرافه": 3197,
      "اخم": 3198,
      "جفت": 3199,
      "شکننده": 3200,
      "صاد": 3201,
      "عین": 3202,
      "لج": 3203,
      "نرمی": 3204,
      "پال": 3205,
      "کیم": 3206,
      "‌ام": 3207,
      "لولو": 3208,
      "شینی": 3209,
      "سوی": 3210,
      "تکرار": 3211,
      "صدایش": 3212,
      "چرخاند": 3213,
      "فراوان": 3214,
      "می‌خواهید": 3215,
      "انگیز": 3216,
      "پیچید": 3217,
      "موفقی": 3218,
      "تولید": 3219,
      "یوگا": 3220,
      "تنقلات": 3221,
      "بک": 3222,
      "بلی": 3223,
      "بکش": 3224,
      "تروم": 3225,
      "قبو": 3226,
      "وران": 3227,
      "پیک‌": 3228,
      "‌پذیر": 3229,
      "انا": 3230,
      "انیم": 3231,
      "خوری": 3232,
      "دوری": 3233,
      "تابی": 3234,
      "موند": 3235,
      "خانه‌ای": 3236,
      "برنامه": 3237,
      "بالشت": 3238,
      "شینند": 3239,
      "یادش": 3240,
      "بازوی": 3241,
      "تشنه": 3242,
      "قهوه": 3243,
      "نیستم": 3244,
      "اجرا": 3245,
      "تخم‌": 3246,
      "غرید": 3247,
      "اصلی": 3248,
      "بلافاصله": 3249,
      "پوشاند": 3250,
      "خاصی": 3251,
      "فندق": 3252,
      "بایست": 3253,
      "مَکس": 3254,
      "کبریت": 3255,
      "ترو": 3256,
      "جاب": 3257,
      "فشان": 3258,
      "پاند": 3259,
      "پناه": 3260,
      "پنگو": 3261,
      "‌گذاری": 3262,
      "انوا": 3263,
      "می‌برند": 3264,
      "زیتون": 3265,
      "مکانی": 3266,
      "تینا": 3267,
      "گویی": 3268,
      "حرک": 3269,
      "جواه": 3270,
      "بارید": 3271,
      "اتاقشان": 3272,
      "بخواب": 3273,
      "بیندازد": 3274,
      "آیند": 3275,
      "خيلي": 3276,
      "پراکند": 3277,
      "عادلانه": 3278,
      "موتورسیکلت": 3279,
      "جمع‌آوری": 3280,
      "تخم‌مرغ": 3281,
      "انواع": 3282,
      "بروی": 3283,
      "حقی": 3284,
      "حفر": 3285,
      "لازم": 3286,
      "نمی‌کردند": 3287,
      "‌ن": 3288,
      "می‌شه": 3289,
      "بودی": 3290,
      "بیش": 3291,
      "دهان": 3292,
      "کارتون": 3293,
      "نشود": 3294,
      "بدن": 3295,
      "تعادل": 3296,
      "سیب‌ها": 3297,
      "شهرک": 3298,
      "لباسش": 3299,
      "بشکه": 3300,
      "ریختند": 3301,
      "می‌گذرانند": 3302,
      "رختخواب": 3303,
      "میان‌وعده": 3304,
      "قبول": 3305,
      "ابزار": 3306,
      "درا": 3307,
      "طبی": 3308,
      "كو": 3309,
      "نکنید": 3310,
      "وار": 3311,
      "وگر": 3312,
      "می‌ماند": 3313,
      "خیر": 3314,
      "رسد": 3315,
      "گذروندند": 3316,
      "دسته": 3317,
      "مانند": 3318,
      "بازو": 3319,
      "بدیم": 3320,
      "داخلش": 3321,
      "چوبدستی": 3322,
      "تانک": 3323,
      "یک‌روزی": 3324,
      "دریای": 3325,
      "همه‌شان": 3326,
      "انتظار": 3327,
      "صلیب": 3328,
      "وگرنه": 3329,
      "si": 3330,
      "آدام": 3331,
      "ب‌": 3332,
      "شلی": 3333,
      "وید": 3334,
      "میزی": 3335,
      "می‌داشت": 3336,
      "ارزان": 3337,
      "اسد": 3338,
      "براش": 3339,
      "یادآوری": 3340,
      "تکیه": 3341,
      "جوک": 3342,
      "کنجکاوی": 3343,
      "آماد": 3344,
      "آتشفشان": 3345,
      "خيلی": 3346,
      "بگیرید": 3347,
      "هوشمند": 3348,
      "پنگوئن": 3349,
      "بشی": 3350,
      "بپرند": 3351,
      "تپ": 3352,
      "تله": 3353,
      "خرا": 3354,
      "رش": 3355,
      "چل": 3356,
      "باستانی": 3357,
      "میل": 3358,
      "دوستتان": 3359,
      "ریشه": 3360,
      "گذار": 3361,
      "بردی": 3362,
      "کارل": 3363,
      "یادگیری": 3364,
      "پرسروصدا": 3365,
      "جعبه‌ی": 3366,
      "قبلا": 3367,
      "مالید": 3368,
      "آشپزخونه": 3369,
      "دلتنگ": 3370,
      "باتری": 3371,
      "بگذارید": 3372,
      "بخریم": 3373,
      "تفنگ": 3374,
      "پرتقال": 3375,
      "لجباز": 3376,
      "پیک‌نیک": 3377,
      "جواهرات": 3378,
      "in": 3379,
      "آمیز": 3380,
      "بپی": 3381,
      "جل": 3382,
      "عبر": 3383,
      "قلاب": 3384,
      "چکار": 3385,
      "چشید": 3386,
      "چه‌اش": 3387,
      "روانی": 3388,
      "هاي": 3389,
      "بازی‌هایشان": 3390,
      "ریزه": 3391,
      "نیز": 3392,
      "ه‌تر": 3393,
      "می‌خورند": 3394,
      "دختربچه‌ای": 3395,
      "بالن": 3396,
      "روسکو": 3397,
      "چرخید": 3398,
      "چوب‌ها": 3399,
      "بشکند": 3400,
      "بی‌ادب": 3401,
      "آموخته": 3402,
      "اصرار": 3403,
      "چادر": 3404,
      "میکروسکو": 3405,
      "‌و‌": 3406,
      "بچرخد": 3407,
      "تاریخ": 3408,
      "ضعیف": 3409,
      "زنجیر": 3410,
      "صادق": 3411,
      "Far": 3412,
      "آلوچه": 3413,
      "اث": 3414,
      "اذ": 3415,
      "رخ": 3416,
      "صی": 3417,
      "طلا": 3418,
      "نترسید": 3419,
      "وو": 3420,
      "پلی": 3421,
      "هاکی": 3422,
      "شدت": 3423,
      "الکس": 3424,
      "اسکو": 3425,
      "گیره": 3426,
      "مکث": 3427,
      "نیرو": 3428,
      "شیروانی": 3429,
      "برنگ": 3430,
      "زندان": 3431,
      "کیل": 3432,
      "محبت": 3433,
      "امتحانش": 3434,
      "شرح": 3435,
      "متاسفیم": 3436,
      "برسند": 3437,
      "ليلي": 3438,
      "ایمنی": 3439,
      "مودار": 3440,
      "جربه": 3441,
      "لانه‌اش": 3442,
      "فضا": 3443,
      "شرمنده": 3444,
      "مضطر": 3445,
      "پله‌ها": 3446,
      "فوتبال": 3447,
      "Farsi": 3448,
      "اغ": 3449,
      "بشما": 3450,
      "تاین": 3451,
      "جاز": 3452,
      "سَم": 3453,
      "فرم": 3454,
      "مری": 3455,
      "هن": 3456,
      "‌بخش": 3457,
      "بارون": 3458,
      "راضی": 3459,
      "بزودی": 3460,
      "منقار": 3461,
      "لوس": 3462,
      "نابود": 3463,
      "موزه": 3464,
      "دادم": 3465,
      "متحد": 3466,
      "سگ‌ها": 3467,
      "غذایش": 3468,
      "برگردند": 3469,
      "نمی‌خواستم": 3470,
      "تونل": 3471,
      "خلاص": 3472,
      "آویز": 3473,
      "آرایشگر": 3474,
      "میومد": 3475,
      "خوش‌شانس": 3476,
      "اسپایک": 3477,
      "مرکز": 3478,
      "انعطاف‌پذیر": 3479,
      "ریسمان": 3480,
      "ترومپت": 3481,
      "كوچ": 3482,
      "تاینی": 3483,
      "to": 3484,
      "ببرم": 3485,
      "بتوانند": 3486,
      "لمون": 3487,
      "ویم": 3488,
      "وروم": 3489,
      "کاشت": 3490,
      "میکنم": 3491,
      "درمی‌آورد": 3492,
      "خوند": 3493,
      "داکی": 3494,
      "ریزی": 3495,
      "سوفی": 3496,
      "ابرها": 3497,
      "پیت": 3498,
      "شوکه": 3499,
      "معبد": 3500,
      "سوراخی": 3501,
      "فردی": 3502,
      "مارمو": 3503,
      "گاوها": 3504,
      "بحث": 3505,
      "لیسید": 3506,
      "انگشتش": 3507,
      "هیچ‌وقت": 3508,
      "شادمانه": 3509,
      "پیوست": 3510,
      "تقریباً": 3511,
      "مضطرب": 3512,
      "بکنیم": 3513,
      "تدی": 3514,
      "جلی": 3515,
      "رقاب": 3516,
      "گلو": 3517,
      "یجه": 3518,
      "بهشون": 3519,
      "کرده‌ام": 3520,
      "درآمد": 3521,
      "داستانی": 3522,
      "زین": 3523,
      "داشتم": 3524,
      "نگرانی": 3525,
      "پرستار": 3526,
      "خوشحالند": 3527,
      "بنویسد": 3528,
      "دست‌های": 3529,
      "دمه": 3530,
      "ماهی‌های": 3531,
      "متواض": 3532,
      "سرگیجه": 3533,
      "سرگرم‌کنند": 3534,
      "خوابیدن": 3535,
      "خورند": 3536,
      "ترساند": 3537,
      "بلور": 3538,
      "سبک": 3539,
      "برمی‌دارد": 3540,
      "برمی‌گردد": 3541,
      "شیطنت": 3542,
      "عدد": 3543,
      "بوقلمون": 3544,
      "آورند": 3545,
      "مصنوعی": 3546,
      "بفهمد": 3547,
      "تفری": 3548,
      "سانی": 3549,
      "فقی": 3550,
      "ّا": 3551,
      "چیدند": 3552,
      "‌کمان": 3553,
      "انسان": 3554,
      "ایوان": 3555,
      "تونی": 3556,
      "توسط": 3557,
      "خیز": 3558,
      "منظ": 3559,
      "دیوانه": 3560,
      "نیازی": 3561,
      "شیش": 3562,
      "سوس": 3563,
      "برپا": 3564,
      "دوربین": 3565,
      "تعطی": 3566,
      "راهش": 3567,
      "گردد": 3568,
      "پاپی": 3569,
      "اشتراک‌گذاری": 3570,
      "میوه‌ها": 3571,
      "ميا": 3572,
      "مطال": 3573,
      "آزمون": 3574,
      "می‌آمدند": 3575,
      "می‌گذارند": 3576,
      "بخشنده": 3577,
      "رنگین‌کمان": 3578,
      "قدیم": 3579,
      "شادمانی": 3580,
      "اقی": 3581,
      "بذر": 3582,
      "خن": 3583,
      "خیم": 3584,
      "دسر": 3585,
      "زنی": 3586,
      "علی": 3587,
      "فاسد": 3588,
      "قر": 3589,
      "نمی‌کند": 3590,
      "وسی": 3591,
      "ُر": 3592,
      "گز": 3593,
      "بانه": 3594,
      "اوم": 3595,
      "کنون": 3596,
      "سوزان": 3597,
      "کردنش": 3598,
      "زیباترین": 3599,
      "بدبو": 3600,
      "خرگوشی": 3601,
      "تحت": 3602,
      "شرکت": 3603,
      "بدجنسی": 3604,
      "اژدهای": 3605,
      "آخرین": 3606,
      "برمی‌گردند": 3607,
      "بپره": 3608,
      "انوس": 3609,
      "دلیل": 3610,
      "افراد": 3611,
      "حرکات": 3612,
      "میکروسکوپ": 3613,
      "اقیانوس": 3614,
      "اکنون": 3615,
      "تظاهر": 3616,
      "حاض": 3617,
      "سکو": 3618,
      "ظهر": 3619,
      "مشه": 3620,
      "نشدند": 3621,
      "نشنید": 3622,
      "پود": 3623,
      "چار": 3624,
      "چیدن": 3625,
      "‌د": 3626,
      "باقی": 3627,
      "ماکارو": 3628,
      "اسبی": 3629,
      "لاح": 3630,
      "بعدی": 3631,
      "احم": 3632,
      "کارها": 3633,
      "سرزمین": 3634,
      "تابلوی": 3635,
      "جعبهٔ": 3636,
      "نمی‌دونم": 3637,
      "بغلش": 3638,
      "کتاب‌های": 3639,
      "نقاش": 3640,
      "قصر": 3641,
      "برساند": 3642,
      "گنجی": 3643,
      "بیمارستان": 3644,
      "شناخته": 3645,
      "بیفتد": 3646,
      "آدامس": 3647,
      "ماکارونی": 3648,
      "بگذراند": 3649,
      "جز": 3650,
      "مگ": 3651,
      "پندی": 3652,
      "مید": 3653,
      "میکردند": 3654,
      "همون": 3655,
      "گفتم": 3656,
      "اینقدر": 3657,
      "نات": 3658,
      "گذر": 3659,
      "چیزای": 3660,
      "مرداب": 3661,
      "بلندش": 3662,
      "فرشته": 3663,
      "قصد": 3664,
      "تقویم": 3665,
      "يدند": 3666,
      "انداختند": 3667,
      "دردسر": 3668,
      "کاملا": 3669,
      "مستبد": 3670,
      "گروهی": 3671,
      "سازند": 3672,
      "آهنر": 3673,
      "عبرت": 3674,
      "مارمولک": 3675,
      "مطالعه": 3676,
      "تبر": 3677,
      "فواره": 3678,
      "لبه": 3679,
      "مهار": 3680,
      "نظ": 3681,
      "کتابی": 3682,
      "انقدر": 3683,
      "درحالی": 3684,
      "الت": 3685,
      "کور": 3686,
      "برات": 3687,
      "برنج": 3688,
      "سرزمینی": 3689,
      "زیباتر": 3690,
      "بخوانند": 3691,
      "نمی‌آید": 3692,
      "معن": 3693,
      "گردنش": 3694,
      "پوشیدند": 3695,
      "میوه‌های": 3696,
      "بی‌ضر": 3697,
      "امیدوارند": 3698,
      "‌انگیز": 3699,
      "جشنواره": 3700,
      "کوتاهی": 3701,
      "مؤدب": 3702,
      "کایاک": 3703,
      "عینک": 3704,
      "شلیک": 3705,
      "سوسک": 3706,
      "پودر": 3707,
      "اَن": 3708,
      "تجربه": 3709,
      "جاش": 3710,
      "جور": 3711,
      "زل": 3712,
      "سپری": 3713,
      "صدمه": 3714,
      "قان": 3715,
      "لن": 3716,
      "نخواهد": 3717,
      "هتل": 3718,
      "هفته": 3719,
      "وکیل": 3720,
      "کود": 3721,
      "کتی": 3722,
      "گار": 3723,
      "می‌وزید": 3724,
      "شترم": 3725,
      "ارت": 3726,
      "الماس": 3727,
      "اسپید": 3728,
      "ریز": 3729,
      "سینک": 3730,
      "سون": 3731,
      "می‌کردم": 3732,
      "اندی": 3733,
      "برش": 3734,
      "پیانو": 3735,
      "نوک": 3736,
      "بدبخت": 3737,
      "مرطو": 3738,
      "تماس": 3739,
      "تحویل": 3740,
      "سردرگ": 3741,
      "تونسته": 3742,
      "دفن": 3743,
      "زنبورها": 3744,
      "دقیق": 3745,
      "عظیم": 3746,
      "شمردن": 3747,
      "طلایی": 3748,
      "مادران": 3749,
      "خاطرات": 3750,
      "وفادار": 3751,
      "موفقیت": 3752,
      "نیرومند": 3753,
      "اَنّا": 3754,
      "شترمر": 3755,
      "اسپیدی": 3756,
      "آهی": 3757,
      "زیدن": 3758,
      "شور": 3759,
      "شمع": 3760,
      "ضخیم": 3761,
      "مبار": 3762,
      "نقط": 3763,
      "میگه": 3764,
      "می‌گذاشت": 3765,
      "موی": 3766,
      "گوجه": 3767,
      "دست‌ها": 3768,
      "سرما": 3769,
      "وافل": 3770,
      "سیاره": 3771,
      "خوبیه": 3772,
      "نوع": 3773,
      "بروید": 3774,
      "مریم": 3775,
      "نشانه": 3776,
      "نمی‌دهد": 3777,
      "گردش": 3778,
      "پشتش": 3779,
      "به‌زودی": 3780,
      "اعداد": 3781,
      "بیاورند": 3782,
      "متفاوتی": 3783,
      "اهمیتی": 3784,
      "نیفتاد": 3785,
      "حقیقت": 3786,
      "متواضع": 3787,
      "حاضر": 3788,
      "بب": 3789,
      "زخ": 3790,
      "عمه": 3791,
      "قوه": 3792,
      "نگفت": 3793,
      "نمی‌توانیم": 3794,
      "‌لی": 3795,
      "امتی": 3796,
      "ایند": 3797,
      "مایک": 3798,
      "بازیگوش": 3799,
      "نیش": 3800,
      "ه‌داری": 3801,
      "بابت": 3802,
      "برکه": 3803,
      "ویول": 3804,
      "بازش": 3805,
      "طرح": 3806,
      "اردکی": 3807,
      "بخار": 3808,
      "دیگه‌ای": 3809,
      "آتش‌بازی": 3810,
      "کفش‌های": 3811,
      "ببینید": 3812,
      "والدین": 3813,
      "دوقلوها": 3814,
      "بپرم": 3815,
      "چهارشنبه": 3816,
      "آسیبی": 3817,
      "پاندا": 3818,
      "پراکنده": 3819,
      "اذیت": 3820,
      "منقارش": 3821,
      "تفریح": 3822,
      "؟”": 3823,
      "رست": 3824,
      "شکار": 3825,
      "شغل": 3826,
      "ورا": 3827,
      "چایی": 3828,
      "کمتر": 3829,
      "گارا": 3830,
      "‌یک": 3831,
      "بام": 3832,
      "می‌رقصیدند": 3833,
      "دره": 3834,
      "لی‌لی": 3835,
      "دارو": 3836,
      "داگی": 3837,
      "تاط": 3838,
      "توپ‌های": 3839,
      "جارو": 3840,
      "دخترش": 3841,
      "دست‌هایشان": 3842,
      "دستانش": 3843,
      "شناس": 3844,
      "آمدن": 3845,
      "ایده‌ی": 3846,
      "بدنش": 3847,
      "خلبان": 3848,
      "تعداد": 3849,
      "محتاط": 3850,
      "عصبانیت": 3851,
      "قایقش": 3852,
      "ماجراجو": 3853,
      "دامپزشک": 3854,
      "ابرهای": 3855,
      "می‌رسند": 3856,
      "خوراکی‌های": 3857,
      "چاقو": 3858,
      "مکعب‌ها": 3859,
      "می‌شنود": 3860,
      "بتونه": 3861,
      "دانشگاه": 3862,
      "بپیوند": 3863,
      "مهارت": 3864,
      "لنگر": 3865,
      "مرطوب": 3866,
      "مادرانشان": 3867,
      "گاراژ": 3868,
      "اعت": 3869,
      "تزی": 3870,
      "خب": 3871,
      "خال": 3872,
      "قه‌ای": 3873,
      "نع": 3874,
      "نفر": 3875,
      "نمی‌خواهم": 3876,
      "هشت": 3877,
      "َه": 3878,
      "کچل": 3879,
      "گِ": 3880,
      "رادیو": 3881,
      "می‌نواخت": 3882,
      "بیاد": 3883,
      "خیل": 3884,
      "خوشم": 3885,
      "می‌خواب": 3886,
      "سوز": 3887,
      "دوستانت": 3888,
      "بنوی": 3889,
      "پارکی": 3890,
      "کارخانه": 3891,
      "بال‌های": 3892,
      "شنود": 3893,
      "شکمش": 3894,
      "خواهید": 3895,
      "مرموز": 3896,
      "ماهی‌": 3897,
      "مسن": 3898,
      "تنبیه": 3899,
      "برگردیم": 3900,
      "گمشده": 3901,
      "ماجراهای": 3902,
      "بی‌قرار": 3903,
      "زانویش": 3904,
      "رنگارنگی": 3905,
      "دامن": 3906,
      "اصلاً": 3907,
      "هورا": 3908,
      "وحشت‌زده": 3909,
      "جرقه": 3910,
      "ماسک": 3911,
      "باورش": 3912,
      "قابلمه": 3913,
      "سنگری": 3914,
      "نادیده": 3915,
      "جابجا": 3916,
      "آرد": 3917,
      "ببری": 3918,
      "رک": 3919,
      "سپر": 3920,
      "فرمان": 3921,
      "هدای": 3922,
      "می‌بخش": 3923,
      "می‌کشند": 3924,
      "ماش": 3925,
      "اسکی": 3926,
      "بزرگه": 3927,
      "تابه": 3928,
      "اینها": 3929,
      "سینی": 3930,
      "هرجا": 3931,
      "رویش": 3932,
      "اونم": 3933,
      "تاب‌ها": 3934,
      "مسئ": 3935,
      "گذرانده": 3936,
      "فرص": 3937,
      "سیب‌های": 3938,
      "پاکت": 3939,
      "ملت": 3940,
      "ترسناکی": 3941,
      "بستند": 3942,
      "بندر": 3943,
      "قلبی": 3944,
      "سردش": 3945,
      "گرسن": 3946,
      "کلیسا": 3947,
      "شیطان": 3948,
      "مضحک": 3949,
      "نواختن": 3950,
      "پنکه": 3951,
      "بایستد": 3952,
      "مگس": 3953,
      "شترمرغ": 3954,
      "بپرس": 3955,
      "بخواهد": 3956,
      "تگ": 3957,
      "ثیر": 3958,
      "خرو": 3959,
      "دلف": 3960,
      "رشته": 3961,
      "رعد": 3962,
      "شطر": 3963,
      "شپش": 3964,
      "نکنند": 3965,
      "پاف": 3966,
      "کُ": 3967,
      "‌زن": 3968,
      "ندگی": 3969,
      "روغ": 3970,
      "اموا": 3971,
      "دوشون": 3972,
      "یمن": 3973,
      "استیکی": 3974,
      "گرمی": 3975,
      "بیایی": 3976,
      "نگذ": 3977,
      "اینجاست": 3978,
      "کوکو": 3979,
      "سامی": 3980,
      "اردو": 3981,
      "معنی": 3982,
      "کاخ": 3983,
      "کابین": 3984,
      "نگهبان": 3985,
      "پادا": 3986,
      "چوبی": 3987,
      "تختخواب": 3988,
      "محکم‌تر": 3989,
      "مجمو": 3990,
      "قاطر": 3991,
      "بریزد": 3992,
      "ماسه‌ای": 3993,
      "احتیاج": 3994,
      "شستن": 3995,
      "طلسم": 3996,
      "خستگی": 3997,
      "کلاغ": 3998,
      "آزمایشگاه": 3999,
      "اسکوتر": 4000,
      "رقابتی": 4001,
      "مشهور": 4002,
      "دلفین": 4003,
      "شطرنج": 4004,
      "en": 4005,
      "اً": 4006,
      "حف": 4007,
      "خرم": 4008,
      "مای": 4009,
      "نباشید": 4010,
      "نمی‌تونی": 4011,
      "هوای": 4012,
      "واح": 4013,
      "ير": 4014,
      "يه": 4015,
      "کاش": 4016,
      "‌زمینی": 4017,
      "را‌": 4018,
      "می‌شوم": 4019,
      "لیه": 4020,
      "مناسبی": 4021,
      "می‌خواد": 4022,
      "ناشی": 4023,
      "هرکدام": 4024,
      "نگاهش": 4025,
      "بنوش": 4026,
      "سرزنده": 4027,
      "می‌دانی": 4028,
      "می‌دانند": 4029,
      "رنگش": 4030,
      "جانی": 4031,
      "غلتا": 4032,
      "چرخان": 4033,
      "فرض": 4034,
      "سیب‌زمینی": 4035,
      "باهوشی": 4036,
      "متنفر": 4037,
      "نشستن": 4038,
      "شب‌ها": 4039,
      "متاسفانه": 4040,
      "دیوارها": 4041,
      "شاخه‌های": 4042,
      "اضافی": 4043,
      "مودب": 4044,
      "شکل‌های": 4045,
      "پستی": 4046,
      "رژی": 4047,
      "عمه‌اش": 4048,
      "شعله": 4049,
      "پختن": 4050,
      "بگردد": 4051,
      "پینکی": 4052,
      "کابل": 4053,
      "بکشیم": 4054,
      "فقیر": 4055,
      "شیشه‌ای": 4056,
      "نقطه": 4057,
      "کابینت": 4058,
      "ابه": 4059,
      "انده": 4060,
      "اپرا": 4061,
      "زمز": 4062,
      "طوق": 4063,
      "فران": 4064,
      "ناز": 4065,
      "نزن": 4066,
      "وشه": 4067,
      "پور": 4068,
      "چاه": 4069,
      "نداره": 4070,
      "روسی": 4071,
      "می‌کشیدند": 4072,
      "می‌پرد": 4073,
      "می‌بارید": 4074,
      "آنجاست": 4075,
      "زیگز": 4076,
      "تویی": 4077,
      "تونم": 4078,
      "استع": 4079,
      "ریا": 4080,
      "گیرم": 4081,
      "لول": 4082,
      "لوبیا": 4083,
      "خندند": 4084,
      "تربچه": 4085,
      "کیس": 4086,
      "خودمان": 4087,
      "خودتان": 4088,
      "آبگیر": 4089,
      "افتادن": 4090,
      "محل": 4091,
      "پاکی": 4092,
      "پوشیدن": 4093,
      "مقاو": 4094,
      "خارش": 4095,
      "علف‌های": 4096,
      "تکه‌های": 4097,
      "پذیرفت": 4098,
      "بردارند": 4099,
      "غریب": 4100,
      "روشنی": 4101,
      "مسافر": 4102,
      "اثر": 4103,
      "برنگشت": 4104,
      "آهنربا": 4105,
      "بی‌ضرر": 4106,
      "رستوران": 4107,
      "امواج": 4108,
      ".“": 4109,
      "اتی": 4110,
      "بکشند": 4111,
      "تأ": 4112,
      "دانم": 4113,
      "زغال": 4114,
      "س‌": 4115,
      "سلاح": 4116,
      "عروسی": 4117,
      "غلات": 4118,
      "هری": 4119,
      "کانگو": 4120,
      "گون": 4121,
      "بامز": 4122,
      "میلی": 4123,
      "میکردن": 4124,
      "راکت": 4125,
      "راشل": 4126,
      "می‌ز": 4127,
      "می‌نشست": 4128,
      "دوست‌های": 4129,
      "پرهای": 4130,
      "کوبید": 4131,
      "براي": 4132,
      "شیپور": 4133,
      "خنده‌داری": 4134,
      "دوستانه‌ای": 4135,
      "پیپین": 4136,
      "زیرشیروانی": 4137,
      "کاج": 4138,
      "بشیم": 4139,
      "واقع": 4140,
      "طوره": 4141,
      "دستشویی": 4142,
      "مطمئ": 4143,
      "مکان‌های": 4144,
      "ماجراجویی‌های": 4145,
      "عزیز": 4146,
      "وسایلش": 4147,
      "یافتن": 4148,
      "بینی‌اش": 4149,
      "برداریم": 4150,
      "محبوب‌ترین": 4151,
      "می‌تونن": 4152,
      "چيز": 4153,
      "اغلب": 4154,
      "هنری": 4155,
      "قرص": 4156,
      "سنگریزه": 4157,
      "بخیر": 4158,
      "تخیل": 4159,
      "خاش": 4160,
      "زاری": 4161,
      "سبت": 4162,
      "سقو": 4163,
      "شکو": 4164,
      "شراب": 4165,
      "صرف": 4166,
      "لنگ": 4167,
      "مهمه": 4168,
      "نرفته": 4169,
      "نسبت": 4170,
      "پدا": 4171,
      "پاسپ": 4172,
      "چطوره": 4173,
      "یون": 4174,
      "باشن": 4175,
      "بارانی": 4176,
      "میگو": 4177,
      "رابی": 4178,
      "می‌دارد": 4179,
      "می‌دیدند": 4180,
      "می‌داند": 4181,
      "دوس": 4182,
      "خندان": 4183,
      "گويد": 4184,
      "گلف": 4185,
      "جویدن": 4186,
      "درستی": 4187,
      "نمي": 4188,
      "بخونه": 4189,
      "زیرسی": 4190,
      "عصبی": 4191,
      "خوابیده": 4192,
      "بگذاری": 4193,
      "قایق‌ها": 4194,
      "چندان": 4195,
      "پنجه‌اش": 4196,
      "به‌نام": 4197,
      "مدت‌ها": 4198,
      "والدینشان": 4199,
      "بوته‌ها": 4200,
      "می‌شنوند": 4201,
      "شلنگ": 4202,
      "معنای": 4203,
      "کودک": 4204,
      "واحه": 4205,
      "مقاومت": 4206,
      "سقوط": 4207,
      "پاسپور": 4208,
      ".‬": 4209,
      "بکنند": 4210,
      "بشود": 4211,
      "دما": 4212,
      "ني": 4213,
      "نخور": 4214,
      "نصف": 4215,
      "َد": 4216,
      "کرا": 4217,
      "می‌گفتند": 4218,
      "می‌آیند": 4219,
      "توئه": 4220,
      "بیام": 4221,
      "بیاره": 4222,
      "براون": 4223,
      "ناشناخته": 4224,
      "برنام": 4225,
      "بنشین": 4226,
      "ولوت": 4227,
      "شنیدن": 4228,
      "شکم": 4229,
      "ظرفش": 4230,
      "نوکش": 4231,
      "جولی": 4232,
      "خرگوشه": 4233,
      "گشتن": 4234,
      "بدهید": 4235,
      "عروسک‌هایش": 4236,
      "قلع": 4237,
      "همینطور": 4238,
      "مدرن": 4239,
      "درآوردند": 4240,
      "می‌چرخاند": 4241,
      "دندان‌های": 4242,
      "می‌خندد": 4243,
      "مصمم": 4244,
      "بنوازد": 4245,
      "غیرم": 4246,
      "تعطیلات": 4247,
      "زخمی": 4248,
      "زیرسیگاری": 4249,
      "آژ": 4250,
      "آهو": 4251,
      "اکسی": 4252,
      "بگو": 4253,
      "بپیچ": 4254,
      "بتوانی": 4255,
      "بفرست": 4256,
      "نمک": 4257,
      "نمی‌توانند": 4258,
      "نمی‌تونم": 4259,
      "نمی‌خوام": 4260,
      "نماد": 4261,
      "چپ": 4262,
      "میت": 4263,
      "میخوای": 4264,
      "شدیم": 4265,
      "داشتیم": 4266,
      "ریتم": 4267,
      "دیدی": 4268,
      "موها": 4269,
      "متشکر": 4270,
      "ترسی": 4271,
      "خانه‌هایشان": 4272,
      "برداری": 4273,
      "کارهایی": 4274,
      "بونی": 4275,
      "زیبایش": 4276,
      "حیر": 4277,
      "آوردن": 4278,
      "نقلیه": 4279,
      "فروخت": 4280,
      "سایر": 4281,
      "اشیا": 4282,
      "ماجرای": 4283,
      "زانوی": 4284,
      "لیسد": 4285,
      "هوشی": 4286,
      "چمن‌ها": 4287,
      "حسود": 4288,
      "فرهنگ": 4289,
      "محبوبش": 4290,
      "موجودات": 4291,
      "عمویش": 4292,
      "اصلاح": 4293,
      "بنوشد": 4294,
      "طبیعت": 4295,
      "جلیقه": 4296,
      "آژیر": 4297,
      "اکسیژ": 4298,
      "as": 4299,
      "بَ": 4300,
      "بُ": 4301,
      "خامه": 4302,
      "خزید": 4303,
      "دز": 4304,
      "شفا": 4305,
      "عبوس": 4306,
      "قامت": 4307,
      "نرو": 4308,
      "وظ": 4309,
      "وم": 4310,
      "ياد": 4311,
      "می‌آ": 4312,
      "می‌افت": 4313,
      "دوتا": 4314,
      "ماپ": 4315,
      "اساس": 4316,
      "خوشایند": 4317,
      "کوچک‌تر": 4318,
      "اندازد": 4319,
      "بلد": 4320,
      "گربه‌ها": 4321,
      "گربه‌ی": 4322,
      "گهواره": 4323,
      "پیروی": 4324,
      "نشیمن": 4325,
      "مهربونی": 4326,
      "قدرتش": 4327,
      "ماهیگیری": 4328,
      "نمی‌فهمید": 4329,
      "پوس": 4330,
      "درخشش": 4331,
      "اتفاقات": 4332,
      "کاکا": 4333,
      "نگهداری": 4334,
      "سرسبز": 4335,
      "بابای": 4336,
      "می‌بینی": 4337,
      "مشکلات": 4338,
      "اومدن": 4339,
      "ابرقهرمان": 4340,
      "اِما": 4341,
      "کفش‌هایش": 4342,
      "عروسکی‌اش": 4343,
      "علاقه‌": 4344,
      "عزیزان": 4345,
      "اشکالی": 4346,
      "تزئی": 4347,
      "ملایمت": 4348,
      "بردارم": 4349,
      "and": 4350,
      "ماسه‌ها": 4351,
      "جیمز": 4352,
      "فرستاد": 4353,
      "گران‌": 4354,
      "می‌تونید": 4355,
      "دقیقاً": 4356,
      "بمونه": 4357,
      "رؤیا": 4358,
      "گنجینه": 4359,
      "گذرنامه": 4360,
      "ماشين": 4361,
      "حفظ": 4362,
      "زمزمه": 4363,
      "استعداد": 4364,
      "مسافرت": 4365,
      "بدر": 4366,
      "ببره": 4367,
      "زارا": 4368,
      "سؤ": 4369,
      "لام": 4370,
      "نص": 4371,
      "نمی‌خواهند": 4372,
      "نمی‌توانید": 4373,
      "يا": 4374,
      "چهر": 4375,
      "چمد": 4376,
      "کاه": 4377,
      "کلو": 4378,
      "‌تری": 4379,
      "انرژی": 4380,
      "رودی": 4381,
      "می‌گذاشتند": 4382,
      "می‌گذراند": 4383,
      "می‌برم": 4384,
      "ایگلو": 4385,
      "شده‌ام": 4386,
      "دوستم": 4387,
      "الگو": 4388,
      "تیزی": 4389,
      "گذرانند": 4390,
      "سگ‌های": 4391,
      "بازیک": 4392,
      "شکایت": 4393,
      "پیتر": 4394,
      "پیرز": 4395,
      "بوم": 4396,
      "عیت": 4397,
      "جعلی": 4398,
      "گلها": 4399,
      "شومی": 4400,
      "خرسی": 4401,
      "کنارشان": 4402,
      "مشکی": 4403,
      "بگذران": 4404,
      "بدوه": 4405,
      "مطیع": 4406,
      "بی‌صبر": 4407,
      "کثی": 4408,
      "آغاز": 4409,
      "برسم": 4410,
      "باهاشون": 4411,
      "لیزر": 4412,
      "تصویری": 4413,
      "تمبر": 4414,
      "بمانی": 4415,
      "مستقیم": 4416,
      "‌ی‌": 4417,
      "نفسش": 4418,
      "پوستش": 4419,
      "دروغ": 4420,
      "نوشتن": 4421,
      "میکروف": 4422,
      "مدادر": 4423,
      "ديگر": 4424,
      "کابوس": 4425,
      "وسیله": 4426,
      "اومده": 4427,
      "سردرگم": 4428,
      "تزیین": 4429,
      "نعنا": 4430,
      "هدایت": 4431,
      "فرصت": 4432,
      "پافش": 4433,
      "اکسیژن": 4434,
      "شفاف": 4435,
      "اَ": 4436,
      "بشوید": 4437,
      "تای": 4438,
      "حوصل": 4439,
      "رنج": 4440,
      "زنش": 4441,
      "كل": 4442,
      "كم": 4443,
      "لر": 4444,
      "يت": 4445,
      "پاست": 4446,
      "کتش": 4447,
      "گن": 4448,
      "میزد": 4449,
      "میدم": 4450,
      "می‌رسیدند": 4451,
      "می‌سازند": 4452,
      "دالی": 4453,
      "ماسا": 4454,
      "ارم": 4455,
      "همدیگه": 4456,
      "‌هاش": 4457,
      "این‌ها": 4458,
      "کوله": 4459,
      "نیزه": 4460,
      "موزی": 4461,
      "لاغر": 4462,
      "خانه‌ام": 4463,
      "گذارند": 4464,
      "دوستانم": 4465,
      "توپم": 4466,
      "احساسات": 4467,
      "یادت": 4468,
      "صداهایی": 4469,
      "جوید": 4470,
      "جوری": 4471,
      "اتاقی": 4472,
      "پریده": 4473,
      "خرطو": 4474,
      "گذرانی": 4475,
      "گردی": 4476,
      "جهید": 4477,
      "بترساند": 4478,
      "توانایی": 4479,
      "بشم": 4480,
      "بوته‌ای": 4481,
      "چسبیده": 4482,
      "ساعت‌ها": 4483,
      "پیراهنش": 4484,
      "بپریم": 4485,
      "تهیه": 4486,
      "مسیری": 4487,
      "ویدیو": 4488,
      "ویولن": 4489,
      "پدال": 4490,
      "ظرفشویی": 4491,
      "عزیزانم": 4492,
      "شومینه": 4493,
      "ماساژ": 4494,
      "it": 4495,
      "آوا": 4496,
      "ترم": 4497,
      "حي": 4498,
      "خروس": 4499,
      "خدان": 4500,
      "زپلنگ": 4501,
      "سرو": 4502,
      "سبدی": 4503,
      "سفار": 4504,
      "عتش": 4505,
      "قوان": 4506,
      "لاستیک": 4507,
      "مى": 4508,
      "مگی": 4509,
      "وایی": 4510,
      "يار": 4511,
      "کشو": 4512,
      "بافت": 4513,
      "باهم": 4514,
      "میدونست": 4515,
      "بهار": 4516,
      "روي": 4517,
      "شتاب": 4518,
      "ازند": 4519,
      "توم": 4520,
      "ماشینی": 4521,
      "گرمش": 4522,
      "بیگ": 4523,
      "رویای": 4524,
      "پارچه‌ای": 4525,
      "شهری": 4526,
      "مامانم": 4527,
      "دستگاه": 4528,
      "شن‌ها": 4529,
      "بازى": 4530,
      "گهدار": 4531,
      "پیری": 4532,
      "بوسه": 4533,
      "نشو": 4534,
      "وانت": 4535,
      "بهتره": 4536,
      "اتاقت": 4537,
      "معما": 4538,
      "گوشه‌ای": 4539,
      "پوشد": 4540,
      "فروشی": 4541,
      "نمی‌دانستم": 4542,
      "بسکت": 4543,
      "بپزد": 4544,
      "عالی‌ای": 4545,
      "شاخه‌ای": 4546,
      "اضط": 4547,
      "آن‌جا": 4548,
      "انگشتان": 4549,
      "فلز": 4550,
      "بعضی‌ها": 4551,
      "آهوی": 4552,
      "هیچ‌کدام": 4553,
      "این‌که": 4554,
      "یوزپلنگ": 4555,
      "پرده": 4556,
      "تولدش": 4557,
      "نوشیدنی": 4558,
      "سنجاق": 4559,
      "بخورید": 4560,
      "پلیور": 4561,
      "شکارچی": 4562,
      "پاکیزه": 4563,
      "میکروفون": 4564,
      "خدانگهدار": 4565,
      "سفارش": 4566,
      "بگویند": 4567,
      "تراز": 4568,
      "جنا": 4569,
      "حوص": 4570,
      "رفی": 4571,
      "زون": 4572,
      "سفری": 4573,
      "كس": 4574,
      "لق": 4575,
      "ملو": 4576,
      "ومد": 4577,
      "ژله": 4578,
      "کیه": 4579,
      "یز": 4580,
      "‌به‌": 4581,
      "نداری": 4582,
      "میکنه": 4583,
      "ردیف": 4584,
      "ستون": 4585,
      "می‌ساخت": 4586,
      "درمی": 4587,
      "لیلي": 4588,
      "داگ": 4589,
      "کوس": 4590,
      "براند": 4591,
      "تیلی": 4592,
      "صداها": 4593,
      "بدانند": 4594,
      "خلق": 4595,
      "درستش": 4596,
      "بادام": 4597,
      "فیفی": 4598,
      "محض": 4599,
      "جهان": 4600,
      "پاپ": 4601,
      "بترس": 4602,
      "داستان‌های": 4603,
      "کلاهی": 4604,
      "ملخ": 4605,
      "کامیونش": 4606,
      "مقدار": 4607,
      "پنهانی": 4608,
      "بی‌دقت": 4609,
      "برمی‌گشت": 4610,
      "فلس": 4611,
      "ببرید": 4612,
      "پادشاهی": 4613,
      "تازه‌": 4614,
      "تازه‌اش": 4615,
      "قوطی": 4616,
      "لغت": 4617,
      "شیطون": 4618,
      "صفحات": 4619,
      "نوشیدند": 4620,
      "زباله‌ها": 4621,
      "پنکیک": 4622,
      "...": 4623,
      "کسل‌کننده": 4624,
      "رؤی": 4625,
      "پیکر": 4626,
      "لوسي": 4627,
      "چارلی": 4628,
      "مبارزه": 4629,
      "زیگزا": 4630,
      "کانگورو": 4631,
      "یونجه": 4632,
      "بدرفت": 4633,
      "قوانین": 4634,
      "حوصله": 4635,
      "ed": 4636,
      "om": 4637,
      "بسی": 4638,
      "بگوی": 4639,
      "ببخش": 4640,
      "بخواهیم": 4641,
      "تاسف": 4642,
      "دُ": 4643,
      "قرا": 4644,
      "مبه": 4645,
      "نرفت": 4646,
      "ِی": 4647,
      "کان": 4648,
      "میرفت": 4649,
      "روبرو": 4650,
      "می‌لرزید": 4651,
      "می‌گیرم": 4652,
      "درِ": 4653,
      "تونیم": 4654,
      "توماس": 4655,
      "کنتر": 4656,
      "دیدار": 4657,
      "اینطوری": 4658,
      "تیر": 4659,
      "می‌خواستیم": 4660,
      "گرفتی": 4661,
      "گذارد": 4662,
      "برن": 4663,
      "گربه‌اش": 4664,
      "جابه‌": 4665,
      "دستور": 4666,
      "چیزا": 4667,
      "پسرها": 4668,
      "شکفت": 4669,
      "قطعا": 4670,
      "شوالی": 4671,
      "گردو": 4672,
      "نقره‌ای": 4673,
      "ترسو": 4674,
      "قایق‌های": 4675,
      "نرمش": 4676,
      "مخال": 4677,
      "بچه‌ی": 4678,
      "حلزون": 4679,
      "قطارها": 4680,
      "غرق": 4681,
      "دوچرخه‌اش": 4682,
      "اصطبل": 4683,
      "خردمندی": 4684,
      "ایستادند": 4685,
      "سنجا": 4686,
      "حکمت": 4687,
      "حمایت": 4688,
      "روغن": 4689,
      "سؤال": 4690,
      "ملوان": 4691,
      "کنترل": 4692,
      "دکم": 4693,
      "سلول": 4694,
      "ظیم": 4695,
      "غلی": 4696,
      "نکردم": 4697,
      "وط": 4698,
      "وات": 4699,
      "چه‌ی": 4700,
      "میشد": 4701,
      "روبات": 4702,
      "می‌اش": 4703,
      "می‌گرفتند": 4704,
      "می‌شوی": 4705,
      "درها": 4706,
      "یکشنبه": 4707,
      "بودیم": 4708,
      "توالت": 4709,
      "بازی‌ای": 4710,
      "ریق": 4711,
      "بزرگترین": 4712,
      "می‌خوند": 4713,
      "سوسی": 4714,
      "کمک‌کننده": 4715,
      "توپ‌ها": 4716,
      "یاق": 4717,
      "هستن": 4718,
      "ماشینت": 4719,
      "پیچی": 4720,
      "چرمی": 4721,
      "معدن": 4722,
      "هیجان‌انگیز": 4723,
      "کتابش": 4724,
      "فروتن": 4725,
      "داستان‌ها": 4726,
      "برگردوند": 4727,
      "بسيار": 4728,
      "مجاز": 4729,
      "دنیاست": 4730,
      "شاخه‌ها": 4731,
      "علاقه‌ی": 4732,
      "نداریم": 4733,
      "این‌بار": 4734,
      "پاشیدند": 4735,
      "بمانیم": 4736,
      "پستچی": 4737,
      "دزدان": 4738,
      "خوک‌ها": 4739,
      "شرمندگی": 4740,
      "بيرون": 4741,
      "بگردند": 4742,
      "چسبنا": 4743,
      "حتماً": 4744,
      "فرودگاه": 4745,
      "پالتوی": 4746,
      "فضاپیم": 4747,
      "سرگرم‌کننده‌ای": 4748,
      "می‌بخشم": 4749,
      "مجموعه": 4750,
      "بامزه‌ای": 4751,
      "کراوات": 4752,
      "متشکریم": 4753,
      "پیرزن": 4754,
      "مبهوت": 4755,
      "شوالیه": 4756,
      "ad": 4757,
      "تفاو": 4758,
      "جسی": 4759,
      "سازد": 4760,
      "فورا": 4761,
      "كر": 4762,
      "لنا": 4763,
      "نما": 4764,
      "نکنی": 4765,
      "هند": 4766,
      "والی": 4767,
      "چه‌": 4768,
      "گتی": 4769,
      "یری": 4770,
      "یقه": 4771,
      "رادی": 4772,
      "ازشون": 4773,
      "روزنامه": 4774,
      "روزگار": 4775,
      "داشتی": 4776,
      "برابر": 4777,
      "ه‌اید": 4778,
      "مادرهایشان": 4779,
      ".\".": 4780,
      "می‌کردیم": 4781,
      "کوچکشان": 4782,
      "ویران": 4783,
      "ه‌ایم": 4784,
      "کیت": 4785,
      "دستگیره": 4786,
      "اونجاست": 4787,
      "سرت": 4788,
      "سرزنش": 4789,
      "فاع": 4790,
      "مزاحم": 4791,
      "نبوده": 4792,
      "باغش": 4793,
      "طرفش": 4794,
      "نمی‌شود": 4795,
      "معکوس": 4796,
      "حشره‌ای": 4797,
      "شادتر": 4798,
      "جادوی": 4799,
      "شیرجه": 4800,
      "سخت‌تر": 4801,
      "ویژه‌اش": 4802,
      "بشوی": 4803,
      "بندی": 4804,
      "رازآلود": 4805,
      "نقاشی‌های": 4806,
      "برجش": 4807,
      "بی‌نظ": 4808,
      "مرغ‌ها": 4809,
      "انداختن": 4810,
      "دوستاشون": 4811,
      "غذایشان": 4812,
      "فلزی": 4813,
      "میتونیم": 4814,
      "پدیدار": 4815,
      "آینده": 4816,
      "توت‌ها": 4817,
      "میکسر": 4818,
      "بخندد": 4819,
      "بزنید": 4820,
      "اسپاگتی": 4821,
      "كوچولو": 4822,
      "کورن": 4823,
      "سوزاند": 4824,
      "ماهی‌گیر": 4825,
      "هوشیار": 4826,
      "کاکائو": 4827,
      "بسکتبال": 4828,
      "زیگزاگ": 4829,
      "بدرفتاری": 4830,
      "جابه‌جا": 4831,
      "سنجابی": 4832,
      "چسبناک": 4833,
      "بگي": 4834,
      "رکس": 4835,
      "زبر": 4836,
      "زخم": 4837,
      "سرم": 4838,
      "لى": 4839,
      "‌کن": 4840,
      "‌رنگ": 4841,
      "‬‫": 4842,
      "روباهی": 4843,
      "می‌دو": 4844,
      "می‌ری": 4845,
      "می‌گشتند": 4846,
      "ه‌گیری": 4847,
      "شیلنگ": 4848,
      "نامش": 4849,
      "گرفتم": 4850,
      "کرفس": 4851,
      "گربه‌": 4852,
      "جاهای": 4853,
      "مامانشان": 4854,
      "زندگي": 4855,
      "کیست": 4856,
      "اونها": 4857,
      "شنوند": 4858,
      "یادآور": 4859,
      "بازویش": 4860,
      "پیروز": 4861,
      "واژ": 4862,
      "وادار": 4863,
      "آبدار": 4864,
      "اسباب‌بازیش": 4865,
      "گلهای": 4866,
      "نمای": 4867,
      "بادبزن": 4868,
      "پونی": 4869,
      "پوشه": 4870,
      "نگهش": 4871,
      "غذاها": 4872,
      "اطاعت": 4873,
      "لباسی": 4874,
      "تمیزش": 4875,
      "می‌بینم": 4876,
      "مخرو": 4877,
      "مالش": 4878,
      "نکردنی": 4879,
      "لمسش": 4880,
      "آوازهای": 4881,
      "مجد": 4882,
      "غرب": 4883,
      "دفعه": 4884,
      "ممکنه": 4885,
      "اسب‌ها": 4886,
      "همه‌شون": 4887,
      "این‌جا": 4888,
      "متأسفیم": 4889,
      "بشنوند": 4890,
      "درخشیدن": 4891,
      "معلمش": 4892,
      "مضح": 4893,
      "جلوگیری": 4894,
      "انورد": 4895,
      "سورپرا": 4896,
      "حکیم": 4897,
      "بخنداند": 4898,
      "سوالات": 4899,
      "كوچك": 4900,
      "بپیوندد": 4901,
      "تأثیر": 4902,
      "شکوفا": 4903,
      "چمدان": 4904,
      "مى‌": 4905,
      "بکنی": 4906,
      "بپرسد": 4907,
      "جوا": 4908,
      "دشو": 4909,
      "ساده": 4910,
      "شیک": 4911,
      "فول": 4912,
      "كن": 4913,
      "كنند": 4914,
      "نتی": 4915,
      "نمی‌خورد": 4916,
      "ورد": 4917,
      "يشه": 4918,
      "‌ال": 4919,
      "با‌": 4920,
      "بايد": 4921,
      "میخوام": 4922,
      "می‌رقص": 4923,
      "می‌خندیدن": 4924,
      "می‌گردند": 4925,
      "می‌اندازد": 4926,
      "اورد": 4927,
      "زیم": 4928,
      "زیست": 4929,
      "دوم": 4930,
      "ازت": 4931,
      "‌هاي": 4932,
      "اسمیت": 4933,
      "کندن": 4934,
      "بزرگشان": 4935,
      "تاک": 4936,
      "تاکسی": 4937,
      "برایتان": 4938,
      "می‌خوانند": 4939,
      "دادیم": 4940,
      "لاتی": 4941,
      "پرنده‌های": 4942,
      "بریدن": 4943,
      "دوستانتان": 4944,
      "مدل": 4945,
      "بنزین": 4946,
      "می‌دم": 4947,
      "تصاد": 4948,
      "کسانی": 4949,
      "افق": 4950,
      "سنگ‌": 4951,
      "اسپری": 4952,
      "برگشته": 4953,
      "بخوابی": 4954,
      "بخوانیم": 4955,
      "بخوابه": 4956,
      "جیب": 4957,
      "چرپی": 4958,
      "نمی‌کنند": 4959,
      "نمی‌کنید": 4960,
      "معرفی": 4961,
      "فینی": 4962,
      "کاپ": 4963,
      "پاشی": 4964,
      "بخشد": 4965,
      "مقاب": 4966,
      "بسازم": 4967,
      "انگیزی": 4968,
      "آزار": 4969,
      "آمدی": 4970,
      "پیچیده": 4971,
      "کامپیو": 4972,
      "وعد": 4973,
      "همراهش": 4974,
      "قلعه‌های": 4975,
      "احمقانه‌ای": 4976,
      "بیاورم": 4977,
      "پولش": 4978,
      "بازی‌هاش": 4979,
      "گریان": 4980,
      "درباره‌اش": 4981,
      "دزدی": 4982,
      "چنگالش": 4983,
      "شلوغ": 4984,
      "تابلویی": 4985,
      "چسباند": 4986,
      "فکری": 4987,
      "مهره‌ها": 4988,
      "حمله": 4989,
      "آتش‌نشانی": 4990,
      "درام": 4991,
      "خلاصه": 4992,
      "خنکی": 4993,
      "سکوت": 4994,
      "قانون": 4995,
      "می‌خوابید": 4996,
      "پاداش": 4997,
      "طوقه": 4998,
      "تزئینات": 4999
    },
    "merges": [
      [
        "ن",
        "د"
      ],
      [
        "ب",
        "ا"
      ],
      [
        "م",
        "ی"
      ],
      [
        "ر",
        "ا"
      ],
      [
        "ر",
        "د"
      ],
      [
        "س",
        "ت"
      ],
      [
        "ب",
        "ه"
      ],
      [
        "ا",
        "ن"
      ],
      [
        "ی",
        "د"
      ],
      [
        "ر",
        "و"
      ],
      [
        "می",
        "‌"
      ],
      [
        "ک",
        "رد"
      ],
      [
        "ه",
        "ا"
      ],
      [
        "و",
        "د"
      ],
      [
        "ا",
        "و"
      ],
      [
        "د",
        "ر"
      ],
      [
        "ل",
        "ی"
      ],
      [
        "ا",
        "م"
      ],
      [
        "خ",
        "و"
      ],
      [
        "ی",
        "ک"
      ],
      [
        "آ",
        "ن"
      ],
      [
        "د",
        "ا"
      ],
      [
        "ف",
        "ت"
      ],
      [
        "ب",
        "ود"
      ],
      [
        "ز",
        "ی"
      ],
      [
        "د",
        "و"
      ],
      [
        "ا",
        "ی"
      ],
      [
        "ش",
        "ت"
      ],
      [
        "ا",
        "ز"
      ],
      [
        "ی",
        "م"
      ],
      [
        "ت",
        "و"
      ],
      [
        "ک",
        "ه"
      ],
      [
        "م",
        "ا"
      ],
      [
        "ا",
        "ر"
      ],
      [
        "ش",
        "د"
      ],
      [
        "با",
        "زی"
      ],
      [
        "ک",
        "ن"
      ],
      [
        "ه",
        "م"
      ],
      [
        "دو",
        "ست"
      ],
      [
        "ر",
        "گ"
      ],
      [
        "‌",
        "ها"
      ],
      [
        "ا",
        "ست"
      ],
      [
        "رو",
        "ز"
      ],
      [
        "گ",
        "ر"
      ],
      [
        "گ",
        "فت"
      ],
      [
        "ب",
        "ی"
      ],
      [
        "ا",
        "ل"
      ],
      [
        "آن",
        "ها"
      ],
      [
        "دا",
        "شت"
      ],
      [
        "ا",
        "د"
      ],
      [
        "ا",
        "س"
      ],
      [
        "ب",
        "ز"
      ],
      [
        "ت",
        "یم"
      ],
      [
        "ن",
        "گ"
      ],
      [
        "خ",
        "ی"
      ],
      [
        "ر",
        "ی"
      ],
      [
        "خ",
        "ت"
      ],
      [
        "خو",
        "ش"
      ],
      [
        "ک",
        "ند"
      ],
      [
        "پ",
        "ر"
      ],
      [
        "خی",
        "لی"
      ],
      [
        "د",
        "ید"
      ],
      [
        "بز",
        "رگ"
      ],
      [
        "ت",
        "ا"
      ],
      [
        "کرد",
        "ند"
      ],
      [
        "ا",
        "ه"
      ],
      [
        "ح",
        "ال"
      ],
      [
        "گ",
        "ی"
      ],
      [
        "م",
        "ن"
      ],
      [
        "ز",
        "د"
      ],
      [
        "ای",
        "ن"
      ],
      [
        "ک",
        "و"
      ],
      [
        "ب",
        "را"
      ],
      [
        "س",
        "ی"
      ],
      [
        "ام",
        "ا"
      ],
      [
        "د",
        "ی"
      ],
      [
        "م",
        "ک"
      ],
      [
        "ل",
        "و"
      ],
      [
        "کو",
        "چ"
      ],
      [
        "لی",
        "لی"
      ],
      [
        "ن",
        "ی"
      ],
      [
        "ه",
        "‌"
      ],
      [
        "خوش",
        "حال"
      ],
      [
        "برا",
        "ی"
      ],
      [
        "ت",
        "ی"
      ],
      [
        "می‌",
        "خو"
      ],
      [
        "ن",
        "ا"
      ],
      [
        "ت",
        "ام"
      ],
      [
        "ما",
        "در"
      ],
      [
        "ند",
        "ه"
      ],
      [
        "م",
        "و"
      ],
      [
        "ر",
        "س"
      ],
      [
        "ر",
        "ه"
      ],
      [
        "ر",
        "فت"
      ],
      [
        "پ",
        "س"
      ],
      [
        "ش",
        "ان"
      ],
      [
        ".",
        "\""
      ],
      [
        "دا",
        "د"
      ],
      [
        "ه",
        "ر"
      ],
      [
        "ش",
        "ی"
      ],
      [
        "می‌",
        "تو"
      ],
      [
        "ل",
        "ا"
      ],
      [
        "خ",
        "ان"
      ],
      [
        "م",
        "ام"
      ],
      [
        "با",
        "ب"
      ],
      [
        "ی",
        "ه"
      ],
      [
        "ر",
        "م"
      ],
      [
        "پ",
        "ید"
      ],
      [
        "چ",
        "ه"
      ],
      [
        "س",
        "و"
      ],
      [
        "آن",
        "‌ها"
      ],
      [
        "رو",
        "ی"
      ],
      [
        "پید",
        "ا"
      ],
      [
        "ن",
        "ام"
      ],
      [
        "می‌",
        "کرد"
      ],
      [
        "‌ها",
        "ی"
      ],
      [
        "ا",
        "ب"
      ],
      [
        "ا",
        "ت"
      ],
      [
        "خ",
        "ند"
      ],
      [
        "ک",
        "مک"
      ],
      [
        "کن",
        "ند"
      ],
      [
        "ها",
        "ی"
      ],
      [
        "کوچ",
        "ک"
      ],
      [
        "می‌خو",
        "است"
      ],
      [
        "پر",
        "نده"
      ],
      [
        "چ",
        "ی"
      ],
      [
        "ا",
        "شت"
      ],
      [
        "و",
        "ق"
      ],
      [
        "!",
        "\""
      ],
      [
        "گر",
        "فت"
      ],
      [
        "بود",
        "ند"
      ],
      [
        "و",
        "ن"
      ],
      [
        "ان",
        "ست"
      ],
      [
        "د",
        "ه"
      ],
      [
        "اس",
        "باب"
      ],
      [
        "گ",
        "ذ"
      ],
      [
        "م",
        "ت"
      ],
      [
        "ا",
        "ند"
      ],
      [
        "ا",
        "ش"
      ],
      [
        "ب",
        "ر"
      ],
      [
        "گ",
        "و"
      ],
      [
        "ب",
        "ع"
      ],
      [
        "و",
        "ر"
      ],
      [
        "ت",
        "ر"
      ],
      [
        "دوست",
        "ان"
      ],
      [
        "خان",
        "ه"
      ],
      [
        "مادر",
        "ش"
      ],
      [
        "س",
        "گ"
      ],
      [
        "ب",
        "ل"
      ],
      [
        "ا",
        "ح"
      ],
      [
        "در",
        "خت"
      ],
      [
        "ک",
        "ر"
      ],
      [
        "تو",
        "پ"
      ],
      [
        "ب",
        "رد"
      ],
      [
        "د",
        "خت"
      ],
      [
        "گر",
        "به"
      ],
      [
        "و",
        "ی"
      ],
      [
        "ن",
        "ه"
      ],
      [
        "م",
        "د"
      ],
      [
        "ج",
        "ا"
      ],
      [
        "نگ",
        "اه"
      ],
      [
        "ب",
        "ن"
      ],
      [
        "دی",
        "گر"
      ],
      [
        "ه",
        "ی"
      ],
      [
        "پ",
        "ار"
      ],
      [
        "ش",
        "ه"
      ],
      [
        "بع",
        "د"
      ],
      [
        "هم",
        "ه"
      ],
      [
        "ه‌",
        "ای"
      ],
      [
        "وق",
        "تی"
      ],
      [
        "رس",
        "ید"
      ],
      [
        "ل",
        "ب"
      ],
      [
        "ک",
        "ار"
      ],
      [
        "مام",
        "ان"
      ],
      [
        "رو",
        "زی"
      ],
      [
        "کرد",
        "ن"
      ],
      [
        "شد",
        "ند"
      ],
      [
        "ش",
        "ید"
      ],
      [
        "س",
        "ا"
      ],
      [
        "؟",
        "\""
      ],
      [
        "ز",
        "ند"
      ],
      [
        "ش",
        "رو"
      ],
      [
        "شرو",
        "ع"
      ],
      [
        "لب",
        "خند"
      ],
      [
        "دخت",
        "ر"
      ],
      [
        "رو",
        "ن"
      ],
      [
        "ک",
        "ی"
      ],
      [
        "ی",
        "ا"
      ],
      [
        "ه",
        "ست"
      ],
      [
        "پار",
        "ک"
      ],
      [
        "د",
        "ست"
      ],
      [
        "س",
        "اس"
      ],
      [
        "ی",
        "ن"
      ],
      [
        "اح",
        "ساس"
      ],
      [
        "ب",
        "رگ"
      ],
      [
        "او",
        "ن"
      ],
      [
        "س",
        "ر"
      ],
      [
        "خ",
        "ود"
      ],
      [
        "م",
        "ان"
      ],
      [
        "چی",
        "ز"
      ],
      [
        "شد",
        "ه"
      ],
      [
        "می‌تو",
        "ان"
      ],
      [
        "با",
        "ل"
      ],
      [
        "ه",
        "می"
      ],
      [
        "و",
        "لو"
      ],
      [
        "پس",
        "ر"
      ],
      [
        "با",
        "ید"
      ],
      [
        "ف",
        "کر"
      ],
      [
        "کوچ",
        "ولو"
      ],
      [
        "شی",
        "ن"
      ],
      [
        "زند",
        "گی"
      ],
      [
        "را",
        "ن"
      ],
      [
        "کن",
        "م"
      ],
      [
        "م",
        "رد"
      ],
      [
        "ش",
        "ن"
      ],
      [
        "ی",
        "اد"
      ],
      [
        "بی",
        "رون"
      ],
      [
        "ص",
        "دا"
      ],
      [
        "ی",
        "ی"
      ],
      [
        "با",
        "ز"
      ],
      [
        "ما",
        "شین"
      ],
      [
        "ید",
        "ند"
      ],
      [
        "با",
        "ره"
      ],
      [
        "آ",
        "مد"
      ],
      [
        "را",
        "ح"
      ],
      [
        "می‌",
        "د"
      ],
      [
        "پر",
        "س"
      ],
      [
        "ا",
        "لی"
      ],
      [
        "خو",
        "رد"
      ],
      [
        "گ",
        "ه"
      ],
      [
        "اد",
        "ی"
      ],
      [
        "ش",
        "ک"
      ],
      [
        "و",
        "ش"
      ],
      [
        "کن",
        "یم"
      ],
      [
        "خو",
        "است"
      ],
      [
        "ب",
        "چه"
      ],
      [
        "پ",
        "ی"
      ],
      [
        "ظ",
        "ر"
      ],
      [
        "و",
        "ا"
      ],
      [
        "ا",
        "فت"
      ],
      [
        "ج",
        "دید"
      ],
      [
        "ت",
        "مام"
      ],
      [
        "ف",
        "ا"
      ],
      [
        "می‌",
        "کردند"
      ],
      [
        "بزرگ",
        "ی"
      ],
      [
        "تا",
        "ب"
      ],
      [
        "سی",
        "ار"
      ],
      [
        "غ",
        "م"
      ],
      [
        "ر",
        "نگ"
      ],
      [
        "ب",
        "و"
      ],
      [
        "ت",
        "ص"
      ],
      [
        "مک",
        "س"
      ],
      [
        "ع",
        "ی"
      ],
      [
        "ب",
        "سیار"
      ],
      [
        "‌",
        "بازی"
      ],
      [
        "با",
        "ن"
      ],
      [
        "ک",
        "س"
      ],
      [
        "دا",
        "ر"
      ],
      [
        "ج",
        "ع"
      ],
      [
        "ت",
        "ش"
      ],
      [
        "ن",
        "ش"
      ],
      [
        "پ",
        "ای"
      ],
      [
        "آ",
        "ب"
      ],
      [
        "داشت",
        "ند"
      ],
      [
        "جع",
        "به"
      ],
      [
        "بل",
        "ند"
      ],
      [
        "اسباب",
        "‌بازی"
      ],
      [
        "می",
        "ا"
      ],
      [
        "ری",
        "ن"
      ],
      [
        "ا",
        "ف"
      ],
      [
        "با",
        "لا"
      ],
      [
        "خو",
        "اه"
      ],
      [
        "راح",
        "ت"
      ],
      [
        "غم",
        "گی"
      ],
      [
        "زی",
        "با"
      ],
      [
        "دوستان",
        "ش"
      ],
      [
        "اس",
        "م"
      ],
      [
        "و",
        "ان"
      ],
      [
        "ا",
        "می"
      ],
      [
        "دو",
        "باره"
      ],
      [
        "ن",
        "زد"
      ],
      [
        "س",
        "مت"
      ],
      [
        "س",
        "ام"
      ],
      [
        "پرس",
        "ید"
      ],
      [
        "با",
        "ش"
      ],
      [
        "افت",
        "اد"
      ],
      [
        "ن",
        "ج"
      ],
      [
        "گو",
        "ید"
      ],
      [
        "م",
        "هر"
      ],
      [
        "لو",
        "سی"
      ],
      [
        "ا",
        "ید"
      ],
      [
        "ح",
        "ر"
      ],
      [
        "خو",
        "بی"
      ],
      [
        "کن",
        "ه"
      ],
      [
        "کن",
        "ی"
      ],
      [
        "ق",
        "ی"
      ],
      [
        "دو",
        "ید"
      ],
      [
        "می‌د",
        "انست"
      ],
      [
        "کرد",
        "ه"
      ],
      [
        "پ",
        "رو"
      ],
      [
        "ن",
        "و"
      ],
      [
        "ب",
        "رو"
      ],
      [
        "غ",
        "ذ"
      ],
      [
        "ج",
        "ان"
      ],
      [
        "گذ",
        "اشت"
      ],
      [
        "گ",
        "ل"
      ],
      [
        "ش",
        "ود"
      ],
      [
        "ت",
        "ک"
      ],
      [
        "س",
        "نگ"
      ],
      [
        "همی",
        "شه"
      ],
      [
        "س",
        "عی"
      ],
      [
        "غمگی",
        "ن"
      ],
      [
        "آ",
        "و"
      ],
      [
        "م",
        "ز"
      ],
      [
        "ده",
        "د"
      ],
      [
        "اس",
        "پ"
      ],
      [
        "ج",
        "و"
      ],
      [
        "ق",
        "ط"
      ],
      [
        "زد",
        "ه"
      ],
      [
        "دا",
        "رد"
      ],
      [
        "زی",
        "ادی"
      ],
      [
        "به",
        "ت"
      ],
      [
        "نا",
        "راحت"
      ],
      [
        "ت",
        "رسید"
      ],
      [
        "رفت",
        "ند"
      ],
      [
        "می",
        "م"
      ],
      [
        "دو",
        "ر"
      ],
      [
        "ش",
        "ما"
      ],
      [
        "و",
        "ل"
      ],
      [
        "ک",
        "ل"
      ],
      [
        "تص",
        "میم"
      ],
      [
        "ب",
        "د"
      ],
      [
        "ج",
        "ام"
      ],
      [
        "با",
        "شد"
      ],
      [
        "خ",
        "ل"
      ],
      [
        "ت",
        "ع"
      ],
      [
        "ب",
        "بی"
      ],
      [
        "ب",
        "گی"
      ],
      [
        "نا",
        "گه"
      ],
      [
        "ناگه",
        "ان"
      ],
      [
        "اد",
        "ه"
      ],
      [
        "نزد",
        "یک"
      ],
      [
        "تک",
        "ان"
      ],
      [
        "اسپ",
        "ات"
      ],
      [
        "را",
        "ه"
      ],
      [
        "ن",
        "بود"
      ],
      [
        "با",
        "غ"
      ],
      [
        "با",
        "ر"
      ],
      [
        "پ",
        "در"
      ],
      [
        "دا",
        "خل"
      ],
      [
        "ق",
        "رم"
      ],
      [
        "و",
        "لی"
      ],
      [
        "ز",
        "می"
      ],
      [
        "د",
        "م"
      ],
      [
        "م",
        "ر"
      ],
      [
        "دوست",
        "ش"
      ],
      [
        "ق",
        "در"
      ],
      [
        "ار",
        "ی"
      ],
      [
        "پرو",
        "از"
      ],
      [
        "بی",
        "ا"
      ],
      [
        "س",
        "ه"
      ],
      [
        "می‌",
        "کند"
      ],
      [
        "برگ",
        "شت"
      ],
      [
        "ا",
        "تا"
      ],
      [
        "ش",
        "و"
      ],
      [
        "غ",
        "ل"
      ],
      [
        "اتا",
        "ق"
      ],
      [
        "قرم",
        "ز"
      ],
      [
        "ط",
        "ر"
      ],
      [
        "د",
        "ن"
      ],
      [
        "م",
        "ه"
      ],
      [
        "س",
        "ری"
      ],
      [
        "م",
        "را"
      ],
      [
        "برد",
        "اشت"
      ],
      [
        "در",
        "ست"
      ],
      [
        "ق",
        "ب"
      ],
      [
        "مهر",
        "بان"
      ],
      [
        "ح",
        "الی"
      ],
      [
        "می‌تو",
        "انست"
      ],
      [
        "ما",
        "کس"
      ],
      [
        "چ",
        "ون"
      ],
      [
        "من",
        "ت"
      ],
      [
        "س",
        "ل"
      ],
      [
        "ق",
        "ه"
      ],
      [
        "زمی",
        "ن"
      ],
      [
        "تو",
        "ی"
      ],
      [
        "ن",
        "شان"
      ],
      [
        "خو",
        "ب"
      ],
      [
        "ان",
        "ی"
      ],
      [
        "آ",
        "فت"
      ],
      [
        "دید",
        "ند"
      ],
      [
        "ات",
        "فا"
      ],
      [
        "ک",
        "شید"
      ],
      [
        "ح",
        "ی"
      ],
      [
        "نی",
        "ست"
      ],
      [
        "ما",
        "هی"
      ],
      [
        "هست",
        "ند"
      ],
      [
        "ک",
        "ت"
      ],
      [
        "ا",
        "رد"
      ],
      [
        "بل",
        "ه"
      ],
      [
        "ن",
        "م"
      ],
      [
        "بهت",
        "رین"
      ],
      [
        "ان",
        "جام"
      ],
      [
        "ب",
        "خو"
      ],
      [
        "سری",
        "ع"
      ],
      [
        "م",
        "س"
      ],
      [
        "ست",
        "ه"
      ],
      [
        "صدا",
        "ی"
      ],
      [
        "دن",
        "بال"
      ],
      [
        "می‌",
        "گوید"
      ],
      [
        "ه‌",
        "اش"
      ],
      [
        "ج",
        "ی"
      ],
      [
        "ج",
        "ود"
      ],
      [
        "خ",
        "رگ"
      ],
      [
        "چ",
        "ر"
      ],
      [
        "پای",
        "ین"
      ],
      [
        "زی",
        "ر"
      ],
      [
        "آ",
        "س"
      ],
      [
        "می",
        "ز"
      ],
      [
        "م",
        "ث"
      ],
      [
        "ن",
        "می‌"
      ],
      [
        "پر",
        "ید"
      ],
      [
        "گرفت",
        "ند"
      ],
      [
        "ی",
        "ر"
      ],
      [
        "حی",
        "وان"
      ],
      [
        "سا",
        "را"
      ],
      [
        "مث",
        "ل"
      ],
      [
        "خ",
        "ر"
      ],
      [
        "گ",
        "اه"
      ],
      [
        "ط",
        "ور"
      ],
      [
        "با",
        "نی"
      ],
      [
        "سل",
        "ام"
      ],
      [
        "ان",
        "ه"
      ],
      [
        "ند",
        "ند"
      ],
      [
        "خ",
        "رس"
      ],
      [
        "کوچک",
        "ی"
      ],
      [
        "خرگ",
        "وش"
      ],
      [
        "ب",
        "غل"
      ],
      [
        "ج",
        "نگ"
      ],
      [
        "چی",
        "زی"
      ],
      [
        "م",
        "ع"
      ],
      [
        "ق",
        "ف"
      ],
      [
        "گذ",
        "را"
      ],
      [
        "ح",
        "ش"
      ],
      [
        "م",
        "تو"
      ],
      [
        "ن",
        "ند"
      ],
      [
        "آن",
        "ا"
      ],
      [
        "با",
        "د"
      ],
      [
        "گو",
        "ش"
      ],
      [
        "منت",
        "ظر"
      ],
      [
        "مرا",
        "قب"
      ],
      [
        "ق",
        "ای"
      ],
      [
        "حر",
        "ف"
      ],
      [
        "آ",
        "یا"
      ],
      [
        "تو",
        "انست"
      ],
      [
        "چیز",
        "های"
      ],
      [
        "ف",
        "ی"
      ],
      [
        "این",
        "که"
      ],
      [
        "و",
        "جود"
      ],
      [
        "ک",
        "ش"
      ],
      [
        "آو",
        "رد"
      ],
      [
        "از",
        "ه"
      ],
      [
        "دا",
        "رم"
      ],
      [
        "ل",
        "ذ"
      ],
      [
        "س",
        "رگ"
      ],
      [
        "م",
        "ح"
      ],
      [
        "رو",
        "س"
      ],
      [
        "می‌",
        "کنند"
      ],
      [
        "خود",
        "ش"
      ],
      [
        "لذ",
        "ت"
      ],
      [
        "ع",
        "ص"
      ],
      [
        "گ",
        "رد"
      ],
      [
        "خ",
        "ا"
      ],
      [
        "ج",
        "ک"
      ],
      [
        "پ",
        "و"
      ],
      [
        "‌های",
        "ش"
      ],
      [
        "ج",
        "ای"
      ],
      [
        "ج",
        "ال"
      ],
      [
        "هی",
        "جان"
      ],
      [
        "بی",
        "شت"
      ],
      [
        "در",
        "خ"
      ],
      [
        "مو",
        "ش"
      ],
      [
        "ف",
        "قط"
      ],
      [
        "ن",
        "می"
      ],
      [
        "ک",
        "یک"
      ],
      [
        "ج",
        "ه"
      ],
      [
        "ک",
        "تاب"
      ],
      [
        "س",
        "م"
      ],
      [
        "ه‌",
        "ی"
      ],
      [
        "گ",
        "شت"
      ],
      [
        "جنگ",
        "ل"
      ],
      [
        "ف",
        "ر"
      ],
      [
        "حیوان",
        "ات"
      ],
      [
        "ت",
        "ن"
      ],
      [
        "حال",
        "ا"
      ],
      [
        "تش",
        "کر"
      ],
      [
        "کن",
        "ار"
      ],
      [
        "‌",
        "تر"
      ],
      [
        "آس",
        "مان"
      ],
      [
        "چ",
        "را"
      ],
      [
        "دار",
        "ند"
      ],
      [
        "ع",
        "روس"
      ],
      [
        "خند",
        "یدند"
      ],
      [
        "مز",
        "ه"
      ],
      [
        "آ",
        "را"
      ],
      [
        "چر",
        "خ"
      ],
      [
        "زد",
        "ند"
      ],
      [
        "ج",
        "ب"
      ],
      [
        "با",
        "ری"
      ],
      [
        "آ",
        "بی"
      ],
      [
        "اتفا",
        "ق"
      ],
      [
        "ل",
        "ه"
      ],
      [
        "سی",
        "ب"
      ],
      [
        "ن",
        "ظر"
      ],
      [
        "پ",
        "شت"
      ],
      [
        "ب",
        "دی"
      ],
      [
        "ر",
        "ز"
      ],
      [
        "ف",
        "را"
      ],
      [
        "ق",
        "دم"
      ],
      [
        "ف",
        "ش"
      ],
      [
        "ش",
        "اد"
      ],
      [
        "ن",
        "ق"
      ],
      [
        "داشت",
        "ه"
      ],
      [
        "می‌تو",
        "اند"
      ],
      [
        "ک",
        "ا"
      ],
      [
        "سرگ",
        "رم"
      ],
      [
        "ش",
        "ا"
      ],
      [
        "نگ",
        "ه"
      ],
      [
        "ک",
        "می"
      ],
      [
        "ت",
        "ما"
      ],
      [
        "می‌خو",
        "اه"
      ],
      [
        "ع",
        "ه"
      ],
      [
        "داد",
        "ند"
      ],
      [
        "ترسید",
        "ه"
      ],
      [
        "گذرا",
        "ندند"
      ],
      [
        "ید",
        "ن"
      ],
      [
        "می‌توان",
        "م"
      ],
      [
        "حش",
        "ره"
      ],
      [
        "ش",
        "نا"
      ],
      [
        "ست",
        "ان"
      ],
      [
        "غذ",
        "ا"
      ],
      [
        "ز",
        "ود"
      ],
      [
        "کن",
        "ید"
      ],
      [
        "برو",
        "د"
      ],
      [
        ".",
        "»"
      ],
      [
        "جا",
        "دو"
      ],
      [
        "گ",
        "اری"
      ],
      [
        "یک",
        "ی"
      ],
      [
        "شن",
        "ید"
      ],
      [
        "عص",
        "بانی"
      ],
      [
        "گر",
        "یه"
      ],
      [
        "درخ",
        "شان"
      ],
      [
        "ق",
        "ص"
      ],
      [
        "خو",
        "اب"
      ],
      [
        "با",
        "ه"
      ],
      [
        "گفت",
        "ند"
      ],
      [
        "پ",
        "ا"
      ],
      [
        "زد",
        "ن"
      ],
      [
        "گی",
        "ر"
      ],
      [
        "غ",
        "یر"
      ],
      [
        "ب",
        "خ"
      ],
      [
        "را",
        "ک"
      ],
      [
        "م",
        "ش"
      ],
      [
        "ف",
        "رو"
      ],
      [
        "خوش",
        "مزه"
      ],
      [
        "ب",
        "ت"
      ],
      [
        "پدر",
        "ش"
      ],
      [
        "چ",
        "و"
      ],
      [
        "ار",
        "ه"
      ],
      [
        "آفت",
        "اب"
      ],
      [
        "ز",
        "ن"
      ],
      [
        "دا",
        "ستان"
      ],
      [
        "ا",
        "ط"
      ],
      [
        "اشت",
        "راک"
      ],
      [
        "بگی",
        "رد"
      ],
      [
        "خو",
        "ر"
      ],
      [
        "کل",
        "اه"
      ],
      [
        "روز",
        "گاری"
      ],
      [
        "وق",
        "ت"
      ],
      [
        "ف",
        "ار"
      ],
      [
        "ل",
        "با"
      ],
      [
        "م",
        "هم"
      ],
      [
        "خان",
        "و"
      ],
      [
        "می‌توان",
        "ی"
      ],
      [
        "دخت",
        "ری"
      ],
      [
        "ل",
        "ف"
      ],
      [
        "‌",
        "اش"
      ],
      [
        "ن",
        "می‌دانست"
      ],
      [
        "ند",
        "اشت"
      ],
      [
        "لا",
        "ق"
      ],
      [
        "م",
        "من"
      ],
      [
        "بال",
        "ای"
      ],
      [
        "شی",
        "ر"
      ],
      [
        "ب",
        "گذ"
      ],
      [
        "ممن",
        "ون"
      ],
      [
        "‌",
        "زده"
      ],
      [
        "!",
        "»"
      ],
      [
        "است",
        "ف"
      ],
      [
        "فار",
        "سی"
      ],
      [
        "ش",
        "هر"
      ],
      [
        "م",
        "ل"
      ],
      [
        "ش",
        "اید"
      ],
      [
        "تو",
        "ان"
      ],
      [
        "سا",
        "خت"
      ],
      [
        "تع",
        "جب"
      ],
      [
        "می‌",
        "کنم"
      ],
      [
        "استف",
        "اده"
      ],
      [
        "با",
        "شه"
      ],
      [
        "برگ",
        "رد"
      ],
      [
        "ت",
        "رس"
      ],
      [
        "س",
        "خت"
      ],
      [
        "مرد",
        "م"
      ],
      [
        "به",
        "تر"
      ],
      [
        "ص",
        "ند"
      ],
      [
        "مت",
        "ن"
      ],
      [
        "چو",
        "ب"
      ],
      [
        "کوچولو",
        "یی"
      ],
      [
        "شد",
        "ن"
      ],
      [
        "ق",
        "ور"
      ],
      [
        "لبا",
        "س"
      ],
      [
        "ل",
        "ط"
      ],
      [
        "قور",
        "باغ"
      ],
      [
        "قای",
        "ق"
      ],
      [
        "ص",
        "ور"
      ],
      [
        "پس",
        "ری"
      ],
      [
        "غ",
        "رو"
      ],
      [
        "کی",
        "تی"
      ],
      [
        "ن",
        "یم"
      ],
      [
        "حر",
        "کت"
      ],
      [
        "مامان",
        "ش"
      ],
      [
        "ه",
        "رگ"
      ],
      [
        "هرگ",
        "ز"
      ],
      [
        "ت",
        "ح"
      ],
      [
        "م",
        "ند"
      ],
      [
        "ت",
        "میز"
      ],
      [
        "سا",
        "لی"
      ],
      [
        "لط",
        "فا"
      ],
      [
        "ع",
        "ت"
      ],
      [
        "دا",
        "ری"
      ],
      [
        "خوش",
        "حالی"
      ],
      [
        "ا",
        "بی"
      ],
      [
        "ن",
        "می‌توانست"
      ],
      [
        "ک",
        "م"
      ],
      [
        "قورباغ",
        "ه"
      ],
      [
        "می‌خواست",
        "ند"
      ],
      [
        "ب",
        "ست"
      ],
      [
        "مو",
        "رد"
      ],
      [
        "جادو",
        "یی"
      ],
      [
        "ا",
        "گر"
      ],
      [
        "آن",
        "جا"
      ],
      [
        "دی",
        "گ"
      ],
      [
        "زود",
        "ی"
      ],
      [
        "ا",
        "هم"
      ],
      [
        "ح",
        "تی"
      ],
      [
        "ق",
        "ت"
      ],
      [
        "خور",
        "شید"
      ],
      [
        "چ",
        "طور"
      ],
      [
        "وی",
        "ژ"
      ],
      [
        "گ",
        "م"
      ],
      [
        "س",
        "ال"
      ],
      [
        "لا",
        "ش"
      ],
      [
        "ب",
        "ده"
      ],
      [
        "ش",
        "گفت"
      ],
      [
        "ف",
        "ری"
      ],
      [
        "ت",
        "لاش"
      ],
      [
        "هی",
        "چ"
      ],
      [
        "و",
        "ه"
      ],
      [
        "ک",
        "سی"
      ],
      [
        "سر",
        "ش"
      ],
      [
        "ای",
        "ی"
      ],
      [
        "ما",
        "ند"
      ],
      [
        "هست",
        "ی"
      ],
      [
        "پر",
        "ند"
      ],
      [
        "چ",
        "ش"
      ],
      [
        "نگ",
        "ران"
      ],
      [
        "ببی",
        "ند"
      ],
      [
        "نو",
        "ز"
      ],
      [
        "یک",
        "دیگر"
      ],
      [
        "پسر",
        "بچه"
      ],
      [
        "ب",
        "ش"
      ],
      [
        "ه",
        "نگ"
      ],
      [
        "شو",
        "ند"
      ],
      [
        "های",
        "ش"
      ],
      [
        "اید",
        "ه"
      ],
      [
        "می‌توان",
        "یم"
      ],
      [
        "س",
        "رس"
      ],
      [
        "هم",
        "چ"
      ],
      [
        "عروس",
        "ک"
      ],
      [
        "ب",
        "نا"
      ],
      [
        "گر",
        "م"
      ],
      [
        "نش",
        "ست"
      ],
      [
        "آ",
        "ش"
      ],
      [
        "نی",
        "از"
      ],
      [
        "ب",
        "ند"
      ],
      [
        "ب",
        "لو"
      ],
      [
        "ق",
        "وی"
      ],
      [
        "با",
        "با"
      ],
      [
        "می‌",
        "بی"
      ],
      [
        "ح",
        "یا"
      ],
      [
        "حیا",
        "ط"
      ],
      [
        "ن",
        "رم"
      ],
      [
        ":",
        "\""
      ],
      [
        "س",
        "پس"
      ],
      [
        "ق",
        "ل"
      ],
      [
        "س",
        "ف"
      ],
      [
        "ش",
        "جا"
      ],
      [
        "خواه",
        "د"
      ],
      [
        "خند",
        "ید"
      ],
      [
        "جدید",
        "ی"
      ],
      [
        "ن",
        "توانست"
      ],
      [
        "آرا",
        "م"
      ],
      [
        "ن",
        "ان"
      ],
      [
        "م",
        "خ"
      ],
      [
        "ا",
        "ج"
      ],
      [
        "ج",
        "مه"
      ],
      [
        "ک",
        "امی"
      ],
      [
        "منتظر",
        "ه‌ای"
      ],
      [
        "ت",
        "خت"
      ],
      [
        "برای",
        "ن"
      ],
      [
        "بنا",
        "براین"
      ],
      [
        "وا",
        "ق"
      ],
      [
        "ن",
        "می‌خواست"
      ],
      [
        "ام",
        "ه"
      ],
      [
        "دو",
        "یدند"
      ],
      [
        "کامی",
        "ون"
      ],
      [
        "ن",
        "ست"
      ],
      [
        "کرد",
        "م"
      ],
      [
        "اط",
        "را"
      ],
      [
        "جال",
        "ب"
      ],
      [
        "پای",
        "ان"
      ],
      [
        "ما",
        "ل"
      ],
      [
        "بیشت",
        "ر"
      ],
      [
        "ه",
        "وا"
      ],
      [
        "پ",
        "ه"
      ],
      [
        "برد",
        "ند"
      ],
      [
        "آفت",
        "ابی"
      ],
      [
        "س",
        "نج"
      ],
      [
        "چی",
        "ست"
      ],
      [
        "ت",
        "ق"
      ],
      [
        "طر",
        "ف"
      ],
      [
        "ف",
        "همی"
      ],
      [
        "پ",
        "ز"
      ],
      [
        "ب",
        "خورد"
      ],
      [
        "ر",
        "قص"
      ],
      [
        "متو",
        "جه"
      ],
      [
        "سرس",
        "ره"
      ],
      [
        "د",
        "ع"
      ],
      [
        "رفت",
        "ن"
      ],
      [
        "اب",
        "د"
      ],
      [
        "چ",
        "ند"
      ],
      [
        "کن",
        "جک"
      ],
      [
        "کنجک",
        "او"
      ],
      [
        "ز",
        "مان"
      ],
      [
        "اد",
        "امه"
      ],
      [
        "آ",
        "ما"
      ],
      [
        "باش",
        "ند"
      ],
      [
        "کن",
        "نده"
      ],
      [
        "غیر",
        "منتظره‌ای"
      ],
      [
        "ل",
        "که"
      ],
      [
        "فرو",
        "ش"
      ],
      [
        "س",
        "ای"
      ],
      [
        "ش",
        "ادی"
      ],
      [
        "مو",
        "ن"
      ],
      [
        "ط",
        "و"
      ],
      [
        "مس",
        "اب"
      ],
      [
        "سنج",
        "اب"
      ],
      [
        "س",
        "بز"
      ],
      [
        "خو",
        "نه"
      ],
      [
        "متو",
        "قف"
      ],
      [
        "فری",
        "اد"
      ],
      [
        "ری",
        "خت"
      ],
      [
        "دیگر",
        "ی"
      ],
      [
        "هست",
        "م"
      ],
      [
        "خ",
        "سته"
      ],
      [
        "در",
        "باره"
      ],
      [
        "ش",
        "ون"
      ],
      [
        "دیگ",
        "ران"
      ],
      [
        "مح",
        "کم"
      ],
      [
        "ا",
        "شی"
      ],
      [
        "فهمی",
        "د"
      ],
      [
        "خورد",
        "ن"
      ],
      [
        "رنگ",
        "ی"
      ],
      [
        "ذ",
        "ر"
      ],
      [
        "اف",
        "ظ"
      ],
      [
        "ام",
        "تح"
      ],
      [
        "ب",
        "س"
      ],
      [
        "امتح",
        "ان"
      ],
      [
        "ده",
        "ند"
      ],
      [
        "کار",
        "ی"
      ],
      [
        "دختر",
        "ک"
      ],
      [
        "آن",
        "قدر"
      ],
      [
        "ج",
        "وی"
      ],
      [
        "بود",
        "ن"
      ],
      [
        "تر",
        "جمه"
      ],
      [
        "پو",
        "شید"
      ],
      [
        "ش",
        "ب"
      ],
      [
        "می",
        "وه"
      ],
      [
        "را",
        "ر"
      ],
      [
        "جو",
        "اب"
      ],
      [
        "خانو",
        "اده"
      ],
      [
        "ب",
        "پ"
      ],
      [
        "بز",
        "ند"
      ],
      [
        "مساب",
        "قه"
      ],
      [
        "آ",
        "رز"
      ],
      [
        "ب",
        "ور"
      ],
      [
        "تما",
        "شا"
      ],
      [
        "ن",
        "کرد"
      ],
      [
        "را",
        "ب"
      ],
      [
        "در",
        "یا"
      ],
      [
        "این",
        "جا"
      ],
      [
        "ق",
        "ش"
      ],
      [
        "ا",
        "خت"
      ],
      [
        "دی",
        "گه"
      ],
      [
        "های",
        "ی"
      ],
      [
        "ب",
        "خت"
      ],
      [
        "ب",
        "دو"
      ],
      [
        "ر",
        "ند"
      ],
      [
        "غ",
        "ول"
      ],
      [
        "م",
        "ق"
      ],
      [
        "تی",
        "می"
      ],
      [
        "ع",
        "الی"
      ],
      [
        "‌های",
        "شان"
      ],
      [
        "آما",
        "ده"
      ],
      [
        "ش",
        "اه"
      ],
      [
        "پ",
        "ش"
      ],
      [
        "بی",
        "ای"
      ],
      [
        "ارد",
        "ک"
      ],
      [
        "ت",
        "په"
      ],
      [
        "گی",
        "ری"
      ],
      [
        "خواه",
        "ی"
      ],
      [
        "خا",
        "طر"
      ],
      [
        "ای",
        "ش"
      ],
      [
        "ویژ",
        "ه"
      ],
      [
        "ج",
        "ن"
      ],
      [
        "تو",
        "اند"
      ],
      [
        "شجا",
        "ع"
      ],
      [
        "بلند",
        "ی"
      ],
      [
        "آ",
        "تش"
      ],
      [
        "تن",
        "ها"
      ],
      [
        "م",
        "ي"
      ],
      [
        "بیشت",
        "ری"
      ],
      [
        "ت",
        "ار"
      ],
      [
        "او",
        "نا"
      ],
      [
        "شما",
        "لو"
      ],
      [
        "پ",
        "شمالو"
      ],
      [
        "مو",
        "اف"
      ],
      [
        "را",
        "ز"
      ],
      [
        "می‌",
        "شد"
      ],
      [
        "س",
        "یم"
      ],
      [
        "در",
        "س"
      ],
      [
        "ه",
        "نوز"
      ],
      [
        "س",
        "رد"
      ],
      [
        "نق",
        "اشی"
      ],
      [
        "آش",
        "پز"
      ],
      [
        "برگشت",
        "ند"
      ],
      [
        "سو",
        "را"
      ],
      [
        "اطرا",
        "ف"
      ],
      [
        "پ",
        "نج"
      ],
      [
        "های",
        "ت"
      ],
      [
        "هم",
        "ان"
      ],
      [
        "ج",
        "را"
      ],
      [
        "ف",
        "رد"
      ],
      [
        "ما",
        "جرا"
      ],
      [
        "دید",
        "ن"
      ],
      [
        "خوش",
        "بخت"
      ],
      [
        "س",
        "ب"
      ],
      [
        "با",
        "ران"
      ],
      [
        "رو",
        "د"
      ],
      [
        "صند",
        "لی"
      ],
      [
        "مز",
        "ر"
      ],
      [
        "غرو",
        "ر"
      ],
      [
        "؟",
        "»"
      ],
      [
        "ع",
        "جی"
      ],
      [
        "ل",
        "مس"
      ],
      [
        "گاه",
        "ی"
      ],
      [
        "ض",
        "ی"
      ],
      [
        "ر",
        "چه"
      ],
      [
        "پ",
        "نه"
      ],
      [
        "اتاق",
        "ش"
      ],
      [
        "ل",
        "ح"
      ],
      [
        "م",
        "ط"
      ],
      [
        "فرا",
        "ر"
      ],
      [
        "ي",
        "د"
      ],
      [
        "نی",
        "ن"
      ],
      [
        "آ",
        "سیب"
      ],
      [
        "ذ",
        "ه"
      ],
      [
        "خ",
        "دا"
      ],
      [
        "دی",
        "و"
      ],
      [
        "آو",
        "از"
      ],
      [
        "ج",
        "مع"
      ],
      [
        "کا",
        "غذ"
      ],
      [
        "ش",
        "ر"
      ],
      [
        "گذاشت",
        "ند"
      ],
      [
        "مزر",
        "عه"
      ],
      [
        "بچه",
        "‌ها"
      ],
      [
        "ت",
        "ند"
      ],
      [
        "بر",
        "ج"
      ],
      [
        "و",
        "ض"
      ],
      [
        "ب",
        "چ"
      ],
      [
        "زیبا",
        "یی"
      ],
      [
        "ح",
        "ل"
      ],
      [
        "ص",
        "ح"
      ],
      [
        "نا",
        "ک"
      ],
      [
        "م",
        "شک"
      ],
      [
        "م",
        "ج"
      ],
      [
        "او",
        "مد"
      ],
      [
        "می‌توان",
        "ند"
      ],
      [
        "خو",
        "اند"
      ],
      [
        "مواف",
        "قت"
      ],
      [
        "بی",
        "‌"
      ],
      [
        "اس",
        "ف"
      ],
      [
        "گو",
        "ی"
      ],
      [
        "بو",
        "بو"
      ],
      [
        "سورا",
        "خ"
      ],
      [
        "ی",
        "ف"
      ],
      [
        "می‌",
        "شود"
      ],
      [
        "مر",
        "غ"
      ],
      [
        "ج",
        "ست"
      ],
      [
        "ک",
        "ث"
      ],
      [
        "وا",
        "رد"
      ],
      [
        "آ",
        "غ"
      ],
      [
        "بر",
        "یم"
      ],
      [
        "د",
        "ل"
      ],
      [
        "ز",
        "رد"
      ],
      [
        "آرز",
        "و"
      ],
      [
        "پنه",
        "ان"
      ],
      [
        "د",
        "رون"
      ],
      [
        "با",
        "شی"
      ],
      [
        "ید",
        "ه"
      ],
      [
        "ع",
        "ث"
      ],
      [
        "با",
        "عث"
      ],
      [
        "همی",
        "ن"
      ],
      [
        "چ",
        "قدر"
      ],
      [
        "می‌خو",
        "اهم"
      ],
      [
        "امی",
        "دو"
      ],
      [
        "اند",
        "اخت"
      ],
      [
        "اتفا",
        "قی"
      ],
      [
        "می‌",
        "داد"
      ],
      [
        "بس",
        "از"
      ],
      [
        "امیدو",
        "ار"
      ],
      [
        "ن",
        "هایت"
      ],
      [
        "می‌",
        "رفت"
      ],
      [
        "کرد",
        "ی"
      ],
      [
        "اج",
        "ازه"
      ],
      [
        "ت",
        "خ"
      ],
      [
        "ع",
        "ا"
      ],
      [
        "می",
        "ر"
      ],
      [
        "ح",
        "افظ"
      ],
      [
        "لو",
        "ی"
      ],
      [
        "خوش",
        "ش"
      ],
      [
        "آشپز",
        "خانه"
      ],
      [
        "سو",
        "ار"
      ],
      [
        "ت",
        "ب"
      ],
      [
        "ت",
        "ان"
      ],
      [
        "خدا",
        "حافظ"
      ],
      [
        "ان",
        "ش"
      ],
      [
        "فروش",
        "گاه"
      ],
      [
        "د",
        "ک"
      ],
      [
        "ما",
        "ر"
      ],
      [
        "قط",
        "ار"
      ],
      [
        "ذه",
        "نش"
      ],
      [
        "ن",
        "باش"
      ],
      [
        "دست",
        "ش"
      ],
      [
        "شا",
        "خ"
      ],
      [
        "غ",
        "اف"
      ],
      [
        "غاف",
        "ل"
      ],
      [
        "آ",
        "مو"
      ],
      [
        "ف",
        "ین"
      ],
      [
        "مت",
        "اسف"
      ],
      [
        "چیز",
        "ها"
      ],
      [
        "ق",
        "رار"
      ],
      [
        "خورد",
        "ند"
      ],
      [
        "شی",
        "ری"
      ],
      [
        "جای",
        "ی"
      ],
      [
        "دوست",
        "اش"
      ],
      [
        "داد",
        "ن"
      ],
      [
        "بلو",
        "ک"
      ],
      [
        "ج",
        "ین"
      ],
      [
        "یک",
        "‌"
      ],
      [
        "آغ",
        "وش"
      ],
      [
        "ز",
        "ه"
      ],
      [
        "جدید",
        "ش"
      ],
      [
        "قش",
        "نگ"
      ],
      [
        "ب",
        "رس"
      ],
      [
        "رو",
        "شن"
      ],
      [
        "گر",
        "س"
      ],
      [
        "هیجان",
        "‌زده"
      ],
      [
        "بو",
        "س"
      ],
      [
        "افتاد",
        "ه"
      ],
      [
        "ز",
        "ان"
      ],
      [
        "می‌",
        "زد"
      ],
      [
        "و",
        "ای"
      ],
      [
        "رسید",
        "ند"
      ],
      [
        "ست",
        "اره"
      ],
      [
        "شت",
        "ه"
      ],
      [
        "مادر",
        "شان"
      ],
      [
        "خان",
        "م"
      ],
      [
        "فرا",
        "موش"
      ],
      [
        "ان",
        "گی"
      ],
      [
        "آ",
        "ید"
      ],
      [
        "و",
        "ح"
      ],
      [
        "رو",
        "ند"
      ],
      [
        "‌های",
        "ی"
      ],
      [
        "مر",
        "تب"
      ],
      [
        "ی",
        "ش"
      ],
      [
        "ق",
        "بل"
      ],
      [
        "ز",
        "ش"
      ],
      [
        "ت",
        "رین"
      ],
      [
        "گرفت",
        "ه"
      ],
      [
        "م",
        "غ"
      ],
      [
        "کث",
        "یف"
      ],
      [
        "داد",
        "ه"
      ],
      [
        "مت",
        "شک"
      ],
      [
        "شیری",
        "نی"
      ],
      [
        "غ",
        "ر"
      ],
      [
        "متشک",
        "رم"
      ],
      [
        "گ",
        "ان"
      ],
      [
        "ه‌",
        "اند"
      ],
      [
        "ق",
        "ول"
      ],
      [
        "بع",
        "دا"
      ],
      [
        "ا",
        "ض"
      ],
      [
        "ب",
        "دهد"
      ],
      [
        "س",
        "ط"
      ],
      [
        "‌",
        "ای"
      ],
      [
        "با",
        "ت"
      ],
      [
        "مادر",
        "بزرگ"
      ],
      [
        "ی",
        "خ"
      ],
      [
        "آ",
        "ز"
      ],
      [
        "بگذ",
        "ار"
      ],
      [
        "تق",
        "سیم"
      ],
      [
        "خداحافظ",
        "ی"
      ],
      [
        "خ",
        "ار"
      ],
      [
        "ق",
        "ا"
      ],
      [
        "پی",
        "ر"
      ],
      [
        "ج",
        "اد"
      ],
      [
        "س",
        "ران"
      ],
      [
        "تو",
        "ن"
      ],
      [
        "بیای",
        "ید"
      ],
      [
        "گوی",
        "ند"
      ],
      [
        "ي",
        "ک"
      ],
      [
        "با",
        "دی"
      ],
      [
        "ئ",
        "ن"
      ],
      [
        "ت",
        "بدی"
      ],
      [
        "خ",
        "لا"
      ],
      [
        "ببی",
        "نند"
      ],
      [
        "تبدی",
        "ل"
      ],
      [
        "ر",
        "ها"
      ],
      [
        "کن",
        "ن"
      ],
      [
        "خی",
        "س"
      ],
      [
        "رنگ",
        "ار"
      ],
      [
        "دو",
        "چرخ"
      ],
      [
        "صدا",
        "یی"
      ],
      [
        "دار",
        "یم"
      ],
      [
        "می‌خواه",
        "د"
      ],
      [
        "سران",
        "جام"
      ],
      [
        "واق",
        "عا"
      ],
      [
        "می‌",
        "دهد"
      ],
      [
        "رنگار",
        "نگ"
      ],
      [
        "او",
        "ل"
      ],
      [
        "مد",
        "تی"
      ],
      [
        "کی",
        "سه"
      ],
      [
        "ع",
        "کس"
      ],
      [
        "ن",
        "ک"
      ],
      [
        "می‌",
        "آمد"
      ],
      [
        "ای",
        "جاد"
      ],
      [
        "بپ",
        "رد"
      ],
      [
        "صح",
        "بت"
      ],
      [
        "می",
        "می"
      ],
      [
        "دیو",
        "ار"
      ],
      [
        "ها",
        "ر"
      ],
      [
        "ری",
        "ف"
      ],
      [
        "می‌تو",
        "نم"
      ],
      [
        "خا",
        "ک"
      ],
      [
        "د",
        "نی"
      ],
      [
        "ای",
        "ست"
      ],
      [
        "های",
        "شان"
      ],
      [
        "آمو",
        "خت"
      ],
      [
        "‌",
        "شان"
      ],
      [
        "مو",
        "رچه"
      ],
      [
        "زی",
        "اد"
      ],
      [
        "گ",
        "او"
      ],
      [
        "غذ",
        "ای"
      ],
      [
        "ر",
        "یم"
      ],
      [
        "ه",
        "ل"
      ],
      [
        "غمگی",
        "نی"
      ],
      [
        "باه",
        "وش"
      ],
      [
        "د",
        "ام"
      ],
      [
        "برا",
        "ق"
      ],
      [
        "ب",
        "ق"
      ],
      [
        "همچ",
        "نان"
      ],
      [
        "گرس",
        "نه"
      ],
      [
        "شد",
        "ید"
      ],
      [
        "دوست",
        "ی"
      ],
      [
        "بست",
        "نی"
      ],
      [
        "ق",
        "اب"
      ],
      [
        "پر",
        "تاب"
      ],
      [
        "لح",
        "ظ"
      ],
      [
        "ا",
        "ق"
      ],
      [
        "د",
        "انست"
      ],
      [
        "می‌خو",
        "ام"
      ],
      [
        "در",
        "ی"
      ],
      [
        "تا",
        "می"
      ],
      [
        "دوید",
        "ن"
      ],
      [
        "لاق",
        "ات"
      ],
      [
        "آ",
        "م"
      ],
      [
        "م",
        "لاقات"
      ],
      [
        "ان",
        "م"
      ],
      [
        "برو",
        "ند"
      ],
      [
        "دع",
        "وا"
      ],
      [
        "د",
        "رد"
      ],
      [
        "د",
        "راز"
      ],
      [
        "ب",
        "ح"
      ],
      [
        "دوست",
        "‌ها"
      ],
      [
        "توپ",
        "ش"
      ],
      [
        "مش",
        "غول"
      ],
      [
        "برا",
        "در"
      ],
      [
        "ب",
        "ید"
      ],
      [
        "ع",
        "ل"
      ],
      [
        "پی",
        "چ"
      ],
      [
        "چیزهای",
        "ی"
      ],
      [
        "بچ",
        "ه‌ای"
      ],
      [
        "بق",
        "یه"
      ],
      [
        "خ",
        "راب"
      ],
      [
        "مهر",
        "بانی"
      ],
      [
        "کشید",
        "ند"
      ],
      [
        "ع",
        "ذر"
      ],
      [
        "لا",
        "ت"
      ],
      [
        "باش",
        "یم"
      ],
      [
        "چش",
        "م"
      ],
      [
        "ر",
        "می"
      ],
      [
        "بو",
        "ت"
      ],
      [
        "عذر",
        "خواهی"
      ],
      [
        "بدو",
        "ن"
      ],
      [
        "ک",
        "ام"
      ],
      [
        "دا",
        "ره"
      ],
      [
        "ط",
        "ول"
      ],
      [
        "سی",
        "ر"
      ],
      [
        "مط",
        "م"
      ],
      [
        "د",
        "ف"
      ],
      [
        "بهت",
        "ری"
      ],
      [
        "همچ",
        "نین"
      ],
      [
        "ام",
        "روز"
      ],
      [
        "داشت",
        "ن"
      ],
      [
        "چ",
        "نگ"
      ],
      [
        "ا",
        "ص"
      ],
      [
        "ز",
        "ید"
      ],
      [
        "ق",
        "دی"
      ],
      [
        "سر",
        "عت"
      ],
      [
        "صور",
        "ت"
      ],
      [
        "و",
        "ع"
      ],
      [
        "بر",
        "می‌"
      ],
      [
        "پ",
        "یم"
      ],
      [
        "لی",
        "لا"
      ],
      [
        "ای",
        "می"
      ],
      [
        "ن",
        "شد"
      ],
      [
        "م",
        "م"
      ],
      [
        "شاخ",
        "ه"
      ],
      [
        "دی",
        "زی"
      ],
      [
        "با",
        "ها"
      ],
      [
        "لی",
        "ز"
      ],
      [
        "شک",
        "ست"
      ],
      [
        "می‌",
        "رسید"
      ],
      [
        "هم",
        "راه"
      ],
      [
        "زن",
        "بور"
      ],
      [
        "ک",
        "شد"
      ],
      [
        "با",
        "شید"
      ],
      [
        "پ",
        "ری"
      ],
      [
        "صند",
        "وق"
      ],
      [
        "جوی",
        "ی"
      ],
      [
        "غافل",
        "گیری"
      ],
      [
        "ه",
        "دی"
      ],
      [
        "گل",
        "‌ها"
      ],
      [
        "قل",
        "عه"
      ],
      [
        "و",
        "ت"
      ],
      [
        "م",
        "‌"
      ],
      [
        "است",
        "راحت"
      ],
      [
        "نام",
        "ه"
      ],
      [
        "تع",
        "میر"
      ],
      [
        "می‌",
        "کنی"
      ],
      [
        "ران",
        "ند"
      ],
      [
        "پی",
        "ش"
      ],
      [
        "مهم",
        "انی"
      ],
      [
        "دوچرخ",
        "ه"
      ],
      [
        "ح",
        "وض"
      ],
      [
        "اس",
        "ب"
      ],
      [
        "می‌خواه",
        "ی"
      ],
      [
        "ج",
        "غ"
      ],
      [
        "ه‌",
        "ام"
      ],
      [
        "ظ",
        "ره"
      ],
      [
        "اه",
        "ر"
      ],
      [
        "خواست",
        "ند"
      ],
      [
        "ن",
        "باید"
      ],
      [
        "خو",
        "اهم"
      ],
      [
        "مو",
        "سی"
      ],
      [
        "خ",
        "رد"
      ],
      [
        "پ",
        "ذ"
      ],
      [
        "لی",
        "س"
      ],
      [
        "خلا",
        "قی"
      ],
      [
        "س",
        "اح"
      ],
      [
        "می‌",
        "خندیدند"
      ],
      [
        "مک",
        "ان"
      ],
      [
        "اب",
        "ر"
      ],
      [
        "نج",
        "ات"
      ],
      [
        "می‌دانست",
        "ند"
      ],
      [
        "پنج",
        "ره"
      ],
      [
        "شر",
        "یک"
      ],
      [
        "اید",
        "ه‌ای"
      ],
      [
        "آ",
        "قای"
      ],
      [
        "ط",
        "نا"
      ],
      [
        "به",
        "ش"
      ],
      [
        "جغ",
        "د"
      ],
      [
        "موسی",
        "قی"
      ],
      [
        "پ",
        "اس"
      ],
      [
        "بد",
        "جن"
      ],
      [
        "می‌",
        "گذ"
      ],
      [
        "شی",
        "رین"
      ],
      [
        "بید",
        "ار"
      ],
      [
        "قدی",
        "می"
      ],
      [
        "ه",
        "و"
      ],
      [
        "مراقب",
        "ت"
      ],
      [
        "خانو",
        "اد"
      ],
      [
        "ساح",
        "ل"
      ],
      [
        "‌",
        "انگی"
      ],
      [
        "می‌بی",
        "ند"
      ],
      [
        "ب",
        "برد"
      ],
      [
        "س",
        "فر"
      ],
      [
        "چ",
        "من"
      ],
      [
        "دید",
        "ه"
      ],
      [
        "سنگ",
        "ین"
      ],
      [
        "دم",
        "ش"
      ],
      [
        "مطم",
        "ئن"
      ],
      [
        "اسباب‌بازی",
        "‌ها"
      ],
      [
        "غرو",
        "ب"
      ],
      [
        "ماجرا",
        "جویی"
      ],
      [
        "به",
        "‌"
      ],
      [
        "ام",
        "ن"
      ],
      [
        "ا",
        "ِ"
      ],
      [
        "اند",
        "ازه"
      ],
      [
        "بخ",
        "ش"
      ],
      [
        "صور",
        "تی"
      ],
      [
        "ا",
        "تو"
      ],
      [
        "و",
        "او"
      ],
      [
        "ک",
        "جا"
      ],
      [
        "رو",
        "باه"
      ],
      [
        "ا",
        "ع"
      ],
      [
        "ح",
        "ص"
      ],
      [
        "کمک",
        "ش"
      ],
      [
        "خواه",
        "ند"
      ],
      [
        "فی",
        "ل"
      ],
      [
        "سف",
        "ید"
      ],
      [
        "ص",
        "بح"
      ],
      [
        "پ",
        "نی"
      ],
      [
        "مو",
        "ف"
      ],
      [
        "اح",
        "مق"
      ],
      [
        "\"",
        "."
      ],
      [
        "خ",
        "شک"
      ],
      [
        "بی",
        "ل"
      ],
      [
        "اش",
        "ق"
      ],
      [
        "پرند",
        "گان"
      ],
      [
        "خ",
        "ره"
      ],
      [
        "پ",
        "یاد"
      ],
      [
        "می‌",
        "زند"
      ],
      [
        "گرفت",
        "ن"
      ],
      [
        "کل",
        "ید"
      ],
      [
        "بد",
        "ود"
      ],
      [
        "ب",
        "لا"
      ],
      [
        "ز",
        "ار"
      ],
      [
        "ک",
        "فش"
      ],
      [
        "می‌تو",
        "نی"
      ],
      [
        "لطفا",
        "ً"
      ],
      [
        "مخ",
        "فی"
      ],
      [
        "پر",
        "ت"
      ],
      [
        "رفت",
        "ه"
      ],
      [
        "ب",
        "تواند"
      ],
      [
        "ص",
        "بر"
      ],
      [
        "شک",
        "سته"
      ],
      [
        "گ",
        "از"
      ],
      [
        "بی",
        "ن"
      ],
      [
        "جست",
        "جو"
      ],
      [
        "ح",
        "س"
      ],
      [
        "چ",
        "سب"
      ],
      [
        "‌",
        "کننده"
      ],
      [
        "ب",
        "ری"
      ],
      [
        "را",
        "ت"
      ],
      [
        "هنگ",
        "امی"
      ],
      [
        "سی",
        "اه"
      ],
      [
        "ق",
        "سمت"
      ],
      [
        "ل",
        "انه"
      ],
      [
        "بی",
        "ند"
      ],
      [
        "دختر",
        "کی"
      ],
      [
        "ع",
        "لف"
      ],
      [
        "م",
        "خت"
      ],
      [
        "چ",
        "یه"
      ],
      [
        "ت",
        "مند"
      ],
      [
        "بی",
        "او"
      ],
      [
        "برای",
        "ش"
      ],
      [
        "پار",
        "س"
      ],
      [
        "تع",
        "ریف"
      ],
      [
        "گ",
        "نج"
      ],
      [
        "بگذ",
        "ارد"
      ],
      [
        "تار",
        "یک"
      ],
      [
        "راح",
        "تی"
      ],
      [
        "پرو",
        "انه"
      ],
      [
        "خواه",
        "ر"
      ],
      [
        "توان",
        "یم"
      ],
      [
        "طنا",
        "ب"
      ],
      [
        "بخ",
        "شید"
      ],
      [
        "طول",
        "انی"
      ],
      [
        "ك",
        "رد"
      ],
      [
        "م",
        "در"
      ],
      [
        "ان",
        "گ"
      ],
      [
        "می‌بی",
        "نند"
      ],
      [
        "ز",
        "نند"
      ],
      [
        "پ",
        "ل"
      ],
      [
        "دو",
        "نست"
      ],
      [
        "شگفت",
        "‌زده"
      ],
      [
        "عجی",
        "بی"
      ],
      [
        "ي",
        "ن"
      ],
      [
        "آن",
        "‌"
      ],
      [
        "آمد",
        "ند"
      ],
      [
        "نشست",
        "ند"
      ],
      [
        "س",
        "گی"
      ],
      [
        "هوا",
        "پیم"
      ],
      [
        "ب",
        "تی"
      ],
      [
        "ع",
        "لا"
      ],
      [
        "دختر",
        "بچه"
      ],
      [
        "ا",
        "خلاقی"
      ],
      [
        "ش",
        "ام"
      ],
      [
        "می‌",
        "برد"
      ],
      [
        "بر",
        "نده"
      ],
      [
        "ج",
        "شن"
      ],
      [
        "بخو",
        "اند"
      ],
      [
        "ق",
        "ات"
      ],
      [
        "از",
        "ش"
      ],
      [
        "برگرد",
        "اند"
      ],
      [
        "بعدا",
        "ً"
      ],
      [
        "ف",
        "ره"
      ],
      [
        "آ",
        "شنا"
      ],
      [
        "ان",
        "گشت"
      ],
      [
        "سا",
        "عت"
      ],
      [
        "تص",
        "وی"
      ],
      [
        "سای",
        "ه"
      ],
      [
        "او",
        "قات"
      ],
      [
        "خان",
        "ه‌اش"
      ],
      [
        "مد",
        "ت"
      ],
      [
        "گشت",
        "ند"
      ],
      [
        "هم",
        "ه‌"
      ],
      [
        "م",
        "سیر"
      ],
      [
        "ي",
        "ك"
      ],
      [
        "کی",
        "ف"
      ],
      [
        "تو",
        "ر"
      ],
      [
        "بر",
        "خورد"
      ],
      [
        "عروس",
        "کی"
      ],
      [
        "ترس",
        "ناک"
      ],
      [
        "ع",
        "می"
      ],
      [
        "پ",
        "ول"
      ],
      [
        "برگشت",
        "ن"
      ],
      [
        "رو",
        "م"
      ],
      [
        "ت",
        "که"
      ],
      [
        "ف",
        "او"
      ],
      [
        "دوستان",
        "ه"
      ],
      [
        "زمان",
        "ی"
      ],
      [
        "ع",
        "لاق"
      ],
      [
        "‌",
        "طور"
      ],
      [
        "علا",
        "قه"
      ],
      [
        "ف",
        "ل"
      ],
      [
        "ک",
        "مان"
      ],
      [
        "می‌",
        "پرید"
      ],
      [
        "ر",
        "ض"
      ],
      [
        "ل",
        "ي"
      ],
      [
        "برو",
        "یم"
      ],
      [
        "دوست",
        "ت"
      ],
      [
        "مرد",
        "ی"
      ],
      [
        "هنگ",
        "ام"
      ],
      [
        "س",
        "که"
      ],
      [
        "می‌خو",
        "رد"
      ],
      [
        "جی",
        "غ"
      ],
      [
        "توان",
        "م"
      ],
      [
        "ب",
        "ط"
      ],
      [
        "ب",
        "شه"
      ],
      [
        "ع",
        "زی"
      ],
      [
        "و",
        "سای"
      ],
      [
        "او",
        "ه"
      ],
      [
        "بازی",
        "‌ها"
      ],
      [
        "کش",
        "ف"
      ],
      [
        "بساز",
        "د"
      ],
      [
        "بدجن",
        "س"
      ],
      [
        "می",
        "تو"
      ],
      [
        "پر",
        "یدند"
      ],
      [
        "واقعا",
        "ً"
      ],
      [
        "م",
        "داد"
      ],
      [
        "بی",
        "لی"
      ],
      [
        "رفت",
        "ار"
      ],
      [
        "واق",
        "عی"
      ],
      [
        "مغ",
        "ازه"
      ],
      [
        "نق",
        "شه"
      ],
      [
        "خ",
        "م"
      ],
      [
        "و",
        "ال"
      ],
      [
        "می‌",
        "رس"
      ],
      [
        "بود",
        "ه"
      ],
      [
        "ال",
        "ان"
      ],
      [
        "بالا",
        "تر"
      ],
      [
        "ب",
        "وی"
      ],
      [
        "گی",
        "اه"
      ],
      [
        "پش",
        "یم"
      ],
      [
        "وح",
        "شت"
      ],
      [
        "وسای",
        "ل"
      ],
      [
        "ب",
        "ره"
      ],
      [
        "ح",
        "ق"
      ],
      [
        "م",
        "ف"
      ],
      [
        "برد",
        "ارد"
      ],
      [
        "و",
        "ص"
      ],
      [
        "ای",
        "من"
      ],
      [
        "بع",
        "ضی"
      ],
      [
        "خواه",
        "ش"
      ],
      [
        "متاسف",
        "م"
      ],
      [
        "آ",
        "ره"
      ],
      [
        "ي",
        "م"
      ],
      [
        "ان",
        "تخ"
      ],
      [
        "منت",
        "ظره"
      ],
      [
        "انتخ",
        "اب"
      ],
      [
        "ب",
        "بر"
      ],
      [
        "خ",
        "جال"
      ],
      [
        "در",
        "آورد"
      ],
      [
        "تن",
        "هایی"
      ],
      [
        "چش",
        "مان"
      ],
      [
        "آ",
        "ه"
      ],
      [
        "ان",
        "ند"
      ],
      [
        "لا",
        "ً"
      ],
      [
        "پرس",
        "د"
      ],
      [
        "قف",
        "سه"
      ],
      [
        "می",
        "ان"
      ],
      [
        "اسباب‌بازی",
        "‌هایش"
      ],
      [
        "گذاشت",
        "ن"
      ],
      [
        "ب",
        "ماند"
      ],
      [
        "ند",
        "اد"
      ],
      [
        "را",
        "کی"
      ],
      [
        "سال",
        "ه"
      ],
      [
        "د",
        "ود"
      ],
      [
        "ص",
        "اح"
      ],
      [
        "ص",
        "دف"
      ],
      [
        "تر",
        "ک"
      ],
      [
        "نش",
        "سته"
      ],
      [
        "آم",
        "ده"
      ],
      [
        "می‌",
        "آید"
      ],
      [
        "ظر",
        "ف"
      ],
      [
        "د",
        "فت"
      ],
      [
        "پ",
        "دید"
      ],
      [
        "می‌",
        "دوید"
      ],
      [
        "شن",
        "یدند"
      ],
      [
        "نش",
        "ون"
      ],
      [
        "اض",
        "اف"
      ],
      [
        "أ",
        "سف"
      ],
      [
        "ز",
        "م"
      ],
      [
        "ند",
        "ار"
      ],
      [
        "اشت",
        "باه"
      ],
      [
        "درخت",
        "ی"
      ],
      [
        "ب",
        "دا"
      ],
      [
        "رو",
        "ح"
      ],
      [
        "تو",
        "ل"
      ],
      [
        "پار",
        "چه"
      ],
      [
        "هیچ",
        "‌"
      ],
      [
        "حل",
        "قه"
      ],
      [
        "سط",
        "ل"
      ],
      [
        "ط",
        "ی"
      ],
      [
        "ه‌",
        "دار"
      ],
      [
        "شگفت",
        "‌انگی"
      ],
      [
        "مم",
        "کن"
      ],
      [
        "هدی",
        "ه"
      ],
      [
        "حوض",
        "چه"
      ],
      [
        "ج",
        "است"
      ],
      [
        "ر",
        "سی"
      ],
      [
        "می",
        "مون"
      ],
      [
        "می‌خو",
        "اند"
      ],
      [
        "ت",
        "م"
      ],
      [
        "خ",
        "طر"
      ],
      [
        "چ",
        "ال"
      ],
      [
        "لو",
        "چه"
      ],
      [
        "مت",
        "فاو"
      ],
      [
        "باش",
        "م"
      ],
      [
        "تصوی",
        "ر"
      ],
      [
        "خ",
        "نده"
      ],
      [
        "ز",
        "بان"
      ],
      [
        "بی",
        "اید"
      ],
      [
        "می‌خو",
        "ای"
      ],
      [
        "رود",
        "خانه"
      ],
      [
        "موف",
        "ق"
      ],
      [
        "ب",
        "سته"
      ],
      [
        "م",
        "ود"
      ],
      [
        "هست",
        "ید"
      ],
      [
        "ببی",
        "ن"
      ],
      [
        "چرا",
        "غ"
      ],
      [
        "مشک",
        "لی"
      ],
      [
        "وال",
        "دی"
      ],
      [
        "آ",
        "ل"
      ],
      [
        "ج",
        "ر"
      ],
      [
        "ن",
        "می‌کرد"
      ],
      [
        "کمک",
        "ت"
      ],
      [
        "گذرا",
        "ند"
      ],
      [
        "دک",
        "مه"
      ],
      [
        "مدر",
        "سه"
      ],
      [
        "خ",
        "ش"
      ],
      [
        "و",
        "ند"
      ],
      [
        "می‌",
        "گویند"
      ],
      [
        "اع",
        "تما"
      ],
      [
        "د",
        "ند"
      ],
      [
        "ص",
        "ف"
      ],
      [
        "می‌",
        "گذراندند"
      ],
      [
        "ریخت",
        "گی"
      ],
      [
        "ق",
        "لو"
      ],
      [
        "ده",
        "انش"
      ],
      [
        "بچه",
        "‌های"
      ],
      [
        "جال",
        "بی"
      ],
      [
        "اعتما",
        "د"
      ],
      [
        "ل",
        "رز"
      ],
      [
        "م",
        "شت"
      ],
      [
        "ک",
        "رم"
      ],
      [
        "سو",
        "پ"
      ],
      [
        "درخت",
        "ان"
      ],
      [
        "سریع",
        "‌تر"
      ],
      [
        "پذ",
        "ی"
      ],
      [
        "رم",
        "رد"
      ],
      [
        "گیر",
        "ند"
      ],
      [
        "ز",
        "نگ"
      ],
      [
        "و",
        "زید"
      ],
      [
        "دو",
        "قلو"
      ],
      [
        "وی",
        "س"
      ],
      [
        "می‌د",
        "انم"
      ],
      [
        "آورد",
        "ه"
      ],
      [
        "ب",
        "ون"
      ],
      [
        "ت",
        "ال"
      ],
      [
        "و",
        "ه‌ای"
      ],
      [
        "مو",
        "مو"
      ],
      [
        "پا",
        "ک"
      ],
      [
        "آ",
        "ی"
      ],
      [
        "ئ",
        "و"
      ],
      [
        "ا",
        "ژ"
      ],
      [
        "ب",
        "بخشید"
      ],
      [
        "ک",
        "اس"
      ],
      [
        "می‌",
        "ترسید"
      ],
      [
        "این",
        "‌"
      ],
      [
        "شک",
        "ل"
      ],
      [
        "بگی",
        "رند"
      ],
      [
        "ذ",
        "وق"
      ],
      [
        "اژ",
        "د"
      ],
      [
        "تو",
        "ت"
      ],
      [
        "خر",
        "ید"
      ],
      [
        "پرند",
        "ه‌ای"
      ],
      [
        "خ",
        "لاق"
      ],
      [
        "ن",
        "ور"
      ],
      [
        "پ",
        "اش"
      ],
      [
        "نزدیک",
        "‌تر"
      ],
      [
        "مخ",
        "لو"
      ],
      [
        "مي",
        "‌"
      ],
      [
        "خانواد",
        "ه‌اش"
      ],
      [
        "د",
        "ان"
      ],
      [
        "نو",
        "بتی"
      ],
      [
        "باها",
        "ش"
      ],
      [
        "ی",
        "و"
      ],
      [
        "خوش",
        "ی"
      ],
      [
        "گی",
        "رد"
      ],
      [
        "شی",
        "شه"
      ],
      [
        "می‌تو",
        "نست"
      ],
      [
        "ا",
        "بان"
      ],
      [
        "س",
        "را"
      ],
      [
        "ف",
        "ان"
      ],
      [
        "ن",
        "خ"
      ],
      [
        "رنگ",
        "ین"
      ],
      [
        "خرد",
        "مند"
      ],
      [
        "ب",
        "کشد"
      ],
      [
        "مت",
        "أسف"
      ],
      [
        "دریا",
        "چه"
      ],
      [
        "مخلو",
        "ط"
      ],
      [
        "ب",
        "مان"
      ],
      [
        "د",
        "قی"
      ],
      [
        "ف",
        "س"
      ],
      [
        "دا",
        "غ"
      ],
      [
        "پی",
        "رمرد"
      ],
      [
        "ت",
        "را"
      ],
      [
        "پ",
        "اد"
      ],
      [
        "ک",
        "لی"
      ],
      [
        "رو",
        "ست"
      ],
      [
        "نا",
        "پدید"
      ],
      [
        "بخو",
        "رند"
      ],
      [
        "می‌خواه",
        "ند"
      ],
      [
        "ت",
        "لف"
      ],
      [
        "ق",
        "د"
      ],
      [
        "پ",
        "ست"
      ],
      [
        "گر",
        "ی"
      ],
      [
        "مو",
        "لی"
      ],
      [
        "اسباب‌بازی",
        "‌های"
      ],
      [
        "اتو",
        "بوس"
      ],
      [
        "ح",
        "فره"
      ],
      [
        "س",
        "بد"
      ],
      [
        "ظ",
        "اهر"
      ],
      [
        "می‌",
        "کنه"
      ],
      [
        "برگ",
        "‌ها"
      ],
      [
        "می‌توان",
        "ید"
      ],
      [
        "دنی",
        "ا"
      ],
      [
        "پاد",
        "شاه"
      ],
      [
        "باد",
        "باد"
      ],
      [
        "آل",
        "ود"
      ],
      [
        "ماشین",
        "‌ها"
      ],
      [
        "مخت",
        "لف"
      ],
      [
        "تال",
        "اب"
      ],
      [
        "ح",
        "د"
      ],
      [
        "د",
        "قت"
      ],
      [
        "ه",
        "وی"
      ],
      [
        "بر",
        "ف"
      ],
      [
        "قه",
        "وه‌ای"
      ],
      [
        "نمی‌دانست",
        "ند"
      ],
      [
        "عجی",
        "ب"
      ],
      [
        "بوت",
        "ه"
      ],
      [
        "ع",
        "ن"
      ],
      [
        "بزرگ",
        "ش"
      ],
      [
        "اش",
        "ک"
      ],
      [
        "سال",
        "م"
      ],
      [
        "خوش",
        "مز"
      ],
      [
        "امی",
        "د"
      ],
      [
        "پنی",
        "ر"
      ],
      [
        "دو",
        "ند"
      ],
      [
        "ت",
        "ز"
      ],
      [
        "ک",
        "او"
      ],
      [
        "ه‌",
        "شان"
      ],
      [
        "بسیار",
        "ی"
      ],
      [
        "ببی",
        "نیم"
      ],
      [
        "ح",
        "مام"
      ],
      [
        "خ",
        "نک"
      ],
      [
        "بازی",
        "‌هایش"
      ],
      [
        "خی",
        "ابان"
      ],
      [
        "زمی",
        "نی"
      ],
      [
        "نوز",
        "اد"
      ],
      [
        "می‌",
        "زدند"
      ],
      [
        "می‌",
        "شوند"
      ],
      [
        "دوستان",
        "شان"
      ],
      [
        "خود",
        "شان"
      ],
      [
        "ع",
        "سل"
      ],
      [
        "می",
        "کرد"
      ],
      [
        "شت",
        "ی"
      ],
      [
        "ال",
        "بت"
      ],
      [
        "هی",
        "و"
      ],
      [
        "خواند",
        "ن"
      ],
      [
        "البت",
        "ه"
      ],
      [
        "ند",
        "یده"
      ],
      [
        "از",
        "د"
      ],
      [
        "گفت",
        "ه"
      ],
      [
        "مهر",
        "بون"
      ],
      [
        "تع",
        "قی"
      ],
      [
        "مل",
        "ای"
      ],
      [
        "مشک",
        "ل"
      ],
      [
        "هیو",
        "لا"
      ],
      [
        "ل",
        "ان"
      ],
      [
        "پ",
        "رد"
      ],
      [
        "مت",
        "عل"
      ],
      [
        "دار",
        "ید"
      ],
      [
        "متعل",
        "ق"
      ],
      [
        "ان",
        "ت"
      ],
      [
        "می‌",
        "کنیم"
      ],
      [
        "بازی",
        "‌های"
      ],
      [
        "شو",
        "یم"
      ],
      [
        "کاس",
        "ه"
      ],
      [
        "تعقی",
        "ب"
      ],
      [
        "ت",
        "لوی"
      ],
      [
        "دا",
        "ی"
      ],
      [
        "خند",
        "یدن"
      ],
      [
        "سرگرم",
        "‌کننده"
      ],
      [
        "ساخت",
        "ن"
      ],
      [
        "دک",
        "تر"
      ],
      [
        "تلوی",
        "زی"
      ],
      [
        "چ",
        "ا"
      ],
      [
        "مو",
        "ا"
      ],
      [
        "رنگ",
        "‌های"
      ],
      [
        "آ",
        "خ"
      ],
      [
        "طو",
        "فان"
      ],
      [
        "آز",
        "اد"
      ],
      [
        "خاک",
        "ست"
      ],
      [
        "هوی",
        "ج"
      ],
      [
        "کاو",
        "ش"
      ],
      [
        "ن",
        "ار"
      ],
      [
        "بن",
        "فش"
      ],
      [
        "رقص",
        "یدن"
      ],
      [
        "ذر",
        "ت"
      ],
      [
        "تلویزی",
        "ون"
      ],
      [
        "ب",
        "رم"
      ],
      [
        "ب",
        "شن"
      ],
      [
        "ع",
        "ط"
      ],
      [
        "ن",
        "می‌توانم"
      ],
      [
        "پ",
        "وش"
      ],
      [
        "خو",
        "راکی"
      ],
      [
        "درخت",
        "‌ها"
      ],
      [
        "ب",
        "پو"
      ],
      [
        "پی",
        "راه"
      ],
      [
        "فش",
        "ار"
      ],
      [
        "ت",
        "از"
      ],
      [
        "ک",
        "دام"
      ],
      [
        "‌",
        "‌"
      ],
      [
        "می‌",
        "چرخ"
      ],
      [
        "بر",
        "فی"
      ],
      [
        "بر",
        "قص"
      ],
      [
        "تص",
        "او"
      ],
      [
        "گل",
        "‌های"
      ],
      [
        "است",
        "خر"
      ],
      [
        "راح",
        "ی"
      ],
      [
        "افت",
        "د"
      ],
      [
        "ک",
        "مد"
      ],
      [
        "نا",
        "هار"
      ],
      [
        "می‌تو",
        "نیم"
      ],
      [
        "نج",
        "ی"
      ],
      [
        "نو",
        "شته"
      ],
      [
        "توانست",
        "ه"
      ],
      [
        "ند",
        "ارد"
      ],
      [
        "به",
        "م"
      ],
      [
        "خوشحال",
        "م"
      ],
      [
        "غیر",
        "منتظره"
      ],
      [
        "آن‌",
        "قدر"
      ],
      [
        "سو",
        "ت"
      ],
      [
        "انجام",
        "ش"
      ],
      [
        "م",
        "فت"
      ],
      [
        "ن",
        "اه"
      ],
      [
        "مو",
        "ز"
      ],
      [
        "می‌د",
        "هم"
      ],
      [
        "بگی",
        "ری"
      ],
      [
        "جب",
        "ور"
      ],
      [
        "بلوک",
        "‌ها"
      ],
      [
        "لحظ",
        "ه"
      ],
      [
        "ف",
        "ض"
      ],
      [
        "ق",
        "و"
      ],
      [
        "م",
        "جبور"
      ],
      [
        "ما",
        "س"
      ],
      [
        "کوچک",
        "ش"
      ],
      [
        "پسر",
        "بچه‌ای"
      ],
      [
        "می‌",
        "روند"
      ],
      [
        "می‌",
        "زنند"
      ],
      [
        "مر",
        "سی"
      ],
      [
        "مح",
        "بو"
      ],
      [
        "برس",
        "د"
      ],
      [
        "برمی‌",
        "گرد"
      ],
      [
        "نار",
        "نجی"
      ],
      [
        "را",
        "هی"
      ],
      [
        "تو",
        "انی"
      ],
      [
        "خوش",
        "گل"
      ],
      [
        "یا",
        "فت"
      ],
      [
        "زیبا",
        "ی"
      ],
      [
        "پرید",
        "ن"
      ],
      [
        "عن",
        "وان"
      ],
      [
        "آ",
        "هنگ"
      ],
      [
        "ن",
        "رد"
      ],
      [
        "ن",
        "بودند"
      ],
      [
        "می‌",
        "شدند"
      ],
      [
        "غل",
        "ت"
      ],
      [
        "خر",
        "چنگ"
      ],
      [
        "خا",
        "ص"
      ],
      [
        "صور",
        "تش"
      ],
      [
        "متفاو",
        "ت"
      ],
      [
        "ش",
        "وی"
      ],
      [
        "ل",
        "ئو"
      ],
      [
        "م",
        "ست"
      ],
      [
        "در",
        "بار"
      ],
      [
        "کشید",
        "ن"
      ],
      [
        "آس",
        "ان"
      ],
      [
        "گرد",
        "ن"
      ],
      [
        "نتوانست",
        "ند"
      ],
      [
        "مار",
        "ک"
      ],
      [
        "ام",
        "ت"
      ],
      [
        "دو",
        "ی"
      ],
      [
        "مو",
        "های"
      ],
      [
        "ران",
        "نده"
      ],
      [
        "قط",
        "ع"
      ],
      [
        "لیز",
        "ا"
      ],
      [
        "ع",
        "قب"
      ],
      [
        "ان",
        "گو"
      ],
      [
        "ویژ",
        "ه‌ای"
      ],
      [
        "عزی",
        "زم"
      ],
      [
        "ر",
        "شد"
      ],
      [
        "ص",
        "میمی"
      ],
      [
        "ق",
        "هر"
      ],
      [
        "ک",
        "لوچه"
      ],
      [
        "اه",
        "می"
      ],
      [
        "می‌توانست",
        "ند"
      ],
      [
        "اضاف",
        "ه"
      ],
      [
        "موا",
        "ظ"
      ],
      [
        "مفت",
        "خر"
      ],
      [
        "قهر",
        "مان"
      ],
      [
        "آ",
        "وی"
      ],
      [
        "ی",
        "می"
      ],
      [
        "ون",
        "ه"
      ],
      [
        "قف",
        "س"
      ],
      [
        "آرا",
        "می"
      ],
      [
        "ایست",
        "اد"
      ],
      [
        "دند",
        "ان"
      ],
      [
        "تلف",
        "ن"
      ],
      [
        "بادباد",
        "ک"
      ],
      [
        "ا",
        "را"
      ],
      [
        "ب",
        "یم"
      ],
      [
        "با",
        "مزه"
      ],
      [
        "تو",
        "نست"
      ],
      [
        "کو",
        "ن"
      ],
      [
        "لو",
        "له"
      ],
      [
        "تاب",
        "ید"
      ],
      [
        "اسباب‌بازی",
        "‌اش"
      ],
      [
        "ساخت",
        "ند"
      ],
      [
        "طو",
        "ری"
      ],
      [
        "شاه",
        "ز"
      ],
      [
        "‌",
        "ی"
      ],
      [
        "می‌",
        "دهند"
      ],
      [
        "بی",
        "نند"
      ],
      [
        "اح",
        "تی"
      ],
      [
        "درخشان",
        "ی"
      ],
      [
        "نم",
        "ود"
      ],
      [
        "نم",
        "ایش"
      ],
      [
        "ج",
        "یک"
      ],
      [
        "ر",
        "ژ"
      ],
      [
        "ل",
        "غ"
      ],
      [
        "م",
        "بل"
      ],
      [
        "ن",
        "فس"
      ],
      [
        "را",
        "یی"
      ],
      [
        "ما",
        "ندند"
      ],
      [
        "بی",
        "نی"
      ],
      [
        "درخ",
        "شید"
      ],
      [
        "لحظ",
        "ه‌ای"
      ],
      [
        "هواپیم",
        "ا"
      ],
      [
        "خطر",
        "ناک"
      ],
      [
        "مشت",
        "اق"
      ],
      [
        "خاکست",
        "ری"
      ],
      [
        "h",
        "e"
      ],
      [
        "ط",
        "راحی"
      ],
      [
        "با",
        "ور"
      ],
      [
        "را",
        "نی"
      ],
      [
        "لی",
        "وان"
      ],
      [
        "ام",
        "نی"
      ],
      [
        "ال",
        "ا"
      ],
      [
        "کو",
        "تا"
      ],
      [
        "برد",
        "ار"
      ],
      [
        "آو",
        "ری"
      ],
      [
        "وع",
        "ده"
      ],
      [
        "عمی",
        "ق"
      ],
      [
        "بط",
        "ری"
      ],
      [
        "می‌رس",
        "د"
      ],
      [
        "تصاو",
        "یر"
      ],
      [
        "غ",
        "ار"
      ],
      [
        "ف",
        "رنگی"
      ],
      [
        "ند",
        "ید"
      ],
      [
        "خو",
        "به"
      ],
      [
        "هم",
        "ه‌ی"
      ],
      [
        "نا",
        "راحتی"
      ],
      [
        "پرنده",
        "‌ها"
      ],
      [
        "کار",
        "های"
      ],
      [
        "شو",
        "م"
      ],
      [
        "پو",
        "ست"
      ],
      [
        "شاد",
        "مان"
      ],
      [
        "دع",
        "وت"
      ],
      [
        "شدید",
        "ی"
      ],
      [
        "\"",
        "،"
      ],
      [
        "ت",
        "مس"
      ],
      [
        "ح",
        "باب"
      ],
      [
        "ند",
        "ی"
      ],
      [
        "هم",
        "دیگر"
      ],
      [
        "بی",
        "ه"
      ],
      [
        "مو",
        "شک"
      ],
      [
        "ببی",
        "نم"
      ],
      [
        "باد",
        "کن"
      ],
      [
        "توان",
        "ند"
      ],
      [
        "دری",
        "ایی"
      ],
      [
        "ش",
        "ست"
      ],
      [
        "خوش",
        "شان"
      ],
      [
        "لا",
        "ک"
      ],
      [
        "می‌کرد",
        "ن"
      ],
      [
        "جی",
        "ل"
      ],
      [
        "مواظ",
        "ب"
      ],
      [
        "س",
        "پاس"
      ],
      [
        "ك",
        "ه"
      ],
      [
        "ک",
        "ف"
      ],
      [
        "اش",
        "اره"
      ],
      [
        "خار",
        "ج"
      ],
      [
        "د",
        "زد"
      ],
      [
        "س",
        "اند"
      ],
      [
        "چ",
        "یک"
      ],
      [
        "می‌",
        "خند"
      ],
      [
        "اف",
        "ی"
      ],
      [
        "کش",
        "او"
      ],
      [
        "مل",
        "حق"
      ],
      [
        "رقص",
        "ید"
      ],
      [
        "حص",
        "ار"
      ],
      [
        "بیاو",
        "رد"
      ],
      [
        "نرد",
        "بان"
      ],
      [
        "ساند",
        "وی"
      ],
      [
        "چیک",
        "ار"
      ],
      [
        "چ",
        "اق"
      ],
      [
        "می",
        "شه"
      ],
      [
        "بز",
        "نند"
      ],
      [
        "دی",
        "ر"
      ],
      [
        "پار",
        "ه"
      ],
      [
        "بگی",
        "رم"
      ],
      [
        "بخو",
        "ریم"
      ],
      [
        "تمس",
        "اح"
      ],
      [
        "ب",
        "پر"
      ],
      [
        "ع",
        "ظ"
      ],
      [
        "ع",
        "م"
      ],
      [
        "خو",
        "ک"
      ],
      [
        "ما",
        "ه"
      ],
      [
        "!\"",
        "."
      ],
      [
        "کار",
        "ت"
      ],
      [
        "پدر",
        "شان"
      ],
      [
        "مع",
        "ل"
      ],
      [
        "فر",
        "ش"
      ],
      [
        "کشاو",
        "رز"
      ],
      [
        "ب",
        "ذ"
      ],
      [
        "ب",
        "خر"
      ],
      [
        "سو",
        "اری"
      ],
      [
        "آرا",
        "یش"
      ],
      [
        "اژد",
        "ها"
      ],
      [
        "ج",
        "م"
      ],
      [
        "ن",
        "کردند"
      ],
      [
        "مک",
        "ع"
      ],
      [
        "شن",
        "ها"
      ],
      [
        "پیاد",
        "ه"
      ],
      [
        "ت",
        "ل"
      ],
      [
        "ز",
        "و"
      ],
      [
        "ق",
        "اشق"
      ],
      [
        "لی",
        "سی"
      ],
      [
        "خود",
        "ت"
      ],
      [
        "تش",
        "وی"
      ],
      [
        "فرد",
        "ا"
      ],
      [
        "ا",
        "زی"
      ],
      [
        "ج",
        "لوی"
      ],
      [
        "ش",
        "رم"
      ],
      [
        "دا",
        "دی"
      ],
      [
        "بود",
        "م"
      ],
      [
        "بگی",
        "ریم"
      ],
      [
        "پشت",
        "ی"
      ],
      [
        "بساز",
        "ند"
      ],
      [
        "بگذار",
        "ند"
      ],
      [
        "بزرگ",
        "‌تر"
      ],
      [
        "کوچ",
        "یک"
      ],
      [
        "شی",
        "ط"
      ],
      [
        "خود",
        "خواه"
      ],
      [
        "نیست",
        "ند"
      ],
      [
        "ملای",
        "م"
      ],
      [
        "ت",
        "ازه"
      ],
      [
        "ت",
        "کون"
      ],
      [
        "ش",
        "ع"
      ],
      [
        "ش",
        "م"
      ],
      [
        "می",
        "و"
      ],
      [
        "لی",
        "مو"
      ],
      [
        "سگ",
        "ش"
      ],
      [
        "مح",
        "افظ"
      ],
      [
        "همان",
        "طور"
      ],
      [
        "وح",
        "شی"
      ],
      [
        "چنگ",
        "ال"
      ],
      [
        "انگ",
        "لیسی"
      ],
      [
        "شاهز",
        "اده"
      ],
      [
        "ب",
        "چی"
      ],
      [
        "ف",
        "ه"
      ],
      [
        "می‌تو",
        "نه"
      ],
      [
        "زیبا",
        "ست"
      ],
      [
        "بگی",
        "ره"
      ],
      [
        "برگرد",
        "د"
      ],
      [
        "اِ",
        "یمی"
      ],
      [
        "خجال",
        "تی"
      ],
      [
        "بادکن",
        "ک"
      ],
      [
        "ث",
        "رو"
      ],
      [
        "می‌",
        "آورد"
      ],
      [
        "ما",
        "ست"
      ],
      [
        "کمک",
        "م"
      ],
      [
        "می‌د",
        "ود"
      ],
      [
        "خ",
        "ي"
      ],
      [
        "ع",
        "د"
      ],
      [
        "گو",
        "سف"
      ],
      [
        "مر",
        "با"
      ],
      [
        "شو",
        "خی"
      ],
      [
        "خوشمز",
        "ه‌ای"
      ],
      [
        "ب",
        "وق"
      ],
      [
        "خ",
        "الی"
      ],
      [
        "م",
        "ض"
      ],
      [
        "زی",
        "پ"
      ],
      [
        "داشت",
        "نی"
      ],
      [
        "من",
        "ه"
      ],
      [
        "نداشت",
        "ند"
      ],
      [
        "تول",
        "د"
      ],
      [
        "مکع",
        "ب"
      ],
      [
        "ثرو",
        "تمند"
      ],
      [
        "ن",
        "کن"
      ],
      [
        "و",
        "نی"
      ],
      [
        "و",
        "اره"
      ],
      [
        "می‌",
        "رود"
      ],
      [
        "من",
        "و"
      ],
      [
        "نا",
        "امید"
      ],
      [
        "پی",
        "شنها"
      ],
      [
        "صاح",
        "ب"
      ],
      [
        "پذی",
        "رایی"
      ],
      [
        "ب",
        "بند"
      ],
      [
        "ج",
        "لو"
      ],
      [
        "د",
        "رو"
      ],
      [
        "ش",
        "لو"
      ],
      [
        "ع",
        "ش"
      ],
      [
        "ع",
        "اشق"
      ],
      [
        "پ",
        "را"
      ],
      [
        "می‌",
        "گیرد"
      ],
      [
        "حال",
        "ش"
      ],
      [
        "تص",
        "ور"
      ],
      [
        "کل",
        "ما"
      ],
      [
        "پشیم",
        "ان"
      ],
      [
        "پیراه",
        "ن"
      ],
      [
        "گوسف",
        "ند"
      ],
      [
        "ت",
        "غ"
      ],
      [
        "ت",
        "ود"
      ],
      [
        "خ",
        "ام"
      ],
      [
        "پ",
        "له"
      ],
      [
        "‌",
        "ترین"
      ],
      [
        "می‌",
        "رفتند"
      ],
      [
        "آن",
        "چه"
      ],
      [
        "سا",
        "کت"
      ],
      [
        "بال",
        "ه"
      ],
      [
        "تاب",
        "لو"
      ],
      [
        "کل",
        "مه"
      ],
      [
        "نق",
        "ش"
      ],
      [
        "بیم",
        "ار"
      ],
      [
        "می‌",
        "گفت"
      ],
      [
        "خو",
        "ن"
      ],
      [
        "حال",
        "ت"
      ],
      [
        "من",
        "م"
      ],
      [
        "صدا",
        "های"
      ],
      [
        "خواه",
        "یم"
      ],
      [
        "قف",
        "ل"
      ],
      [
        "حش",
        "رات"
      ],
      [
        "قای",
        "م"
      ],
      [
        "نیم",
        "کت"
      ],
      [
        "پیاد",
        "ه‌"
      ],
      [
        "آ",
        "قا"
      ],
      [
        "ص",
        "خره"
      ],
      [
        "ض",
        "ر"
      ],
      [
        "ل",
        "ای"
      ],
      [
        "پ",
        "از"
      ],
      [
        "می‌",
        "دویدند"
      ],
      [
        "می‌",
        "پرسد"
      ],
      [
        "ما",
        "لی"
      ],
      [
        "مو",
        "ق"
      ],
      [
        "تر",
        "ش"
      ],
      [
        "ح",
        "ول"
      ],
      [
        "ز",
        "نده"
      ],
      [
        "غ",
        "ری"
      ],
      [
        "ن",
        "ترس"
      ],
      [
        "با",
        "لو"
      ],
      [
        "بل",
        "که"
      ],
      [
        "وی",
        "ی"
      ],
      [
        "باز",
        "ي"
      ],
      [
        "ساخت",
        "ه"
      ],
      [
        "رقص",
        "یدند"
      ],
      [
        "تغ",
        "یی"
      ],
      [
        "ق",
        "ار"
      ],
      [
        "پ",
        "خش"
      ],
      [
        "با",
        "ند"
      ],
      [
        "ست",
        "انی"
      ],
      [
        "روز",
        "ها"
      ],
      [
        "خند",
        "ه‌دار"
      ],
      [
        "گو",
        "شت"
      ],
      [
        "وا",
        "خت"
      ],
      [
        "پیشنها",
        "د"
      ],
      [
        "ج",
        "نی"
      ],
      [
        "د",
        "انه"
      ],
      [
        "ر",
        "بات"
      ],
      [
        "ن",
        "واخت"
      ],
      [
        "به",
        "م‌"
      ],
      [
        "هست",
        "یم"
      ],
      [
        "افت",
        "خار"
      ],
      [
        "تخت",
        "ه"
      ],
      [
        "همان",
        "‌طور"
      ],
      [
        "کام",
        "ل"
      ],
      [
        "بدا",
        "ند"
      ],
      [
        "شگفت‌انگی",
        "ز"
      ],
      [
        "سپاس",
        "گ"
      ],
      [
        "ساندوی",
        "چ"
      ],
      [
        "ق",
        "یم"
      ],
      [
        "چ",
        "هار"
      ],
      [
        "ک",
        "شتی"
      ],
      [
        "می‌",
        "افتد"
      ],
      [
        "تو",
        "ضی"
      ],
      [
        "اب",
        "ت"
      ],
      [
        "شک",
        "لات"
      ],
      [
        "رنگ",
        "‌ها"
      ],
      [
        "افتاد",
        "ند"
      ],
      [
        "غذ",
        "ایی"
      ],
      [
        "نمی‌توانست",
        "ند"
      ],
      [
        "فیل",
        "م"
      ],
      [
        "والدی",
        "نش"
      ],
      [
        "صف",
        "ح"
      ],
      [
        "پاز",
        "ل"
      ],
      [
        "توضی",
        "ح"
      ],
      [
        "آ",
        "دم"
      ],
      [
        "ز",
        "شت"
      ],
      [
        "ص",
        "اف"
      ],
      [
        "ع",
        "رض"
      ],
      [
        "می‌",
        "تابید"
      ],
      [
        "من",
        "حص"
      ],
      [
        "مو",
        "جود"
      ],
      [
        "شان",
        "ه"
      ],
      [
        "نو",
        "شت"
      ],
      [
        "تغیی",
        "ر"
      ],
      [
        "منحص",
        "ر"
      ],
      [
        "د",
        "هم"
      ],
      [
        "چ",
        "ک"
      ],
      [
        "ک",
        "افی"
      ],
      [
        "می‌",
        "گیرند"
      ],
      [
        "او",
        "ر"
      ],
      [
        "ار",
        "زش"
      ],
      [
        "تخت",
        "ش"
      ],
      [
        "قاب",
        "ل"
      ],
      [
        "علاق",
        "ه‌اش"
      ],
      [
        "دربار",
        "ه‌ی"
      ],
      [
        "ج",
        "وان"
      ],
      [
        "ش",
        "کر"
      ],
      [
        "ع",
        "وض"
      ],
      [
        "ف",
        "نج"
      ],
      [
        "ان",
        "و"
      ],
      [
        "کار",
        "ش"
      ],
      [
        "سب",
        "زی"
      ],
      [
        "خ",
        "ط"
      ],
      [
        "ع",
        "مل"
      ],
      [
        "با",
        "باش"
      ],
      [
        "بازی",
        "ش"
      ],
      [
        "مو",
        "تور"
      ],
      [
        "همه",
        "ٔ"
      ],
      [
        "قدر",
        "تمند"
      ],
      [
        "پوشید",
        "ه"
      ],
      [
        "رانند",
        "گی"
      ],
      [
        "پ",
        "خت"
      ],
      [
        "ک",
        "مر"
      ],
      [
        "می",
        "ک"
      ],
      [
        "سا",
        "زی"
      ],
      [
        "سه",
        "یم"
      ],
      [
        "خام",
        "وش"
      ],
      [
        "a",
        "n"
      ],
      [
        "t",
        "he"
      ],
      [
        "د",
        "يد"
      ],
      [
        "پ",
        "لیس"
      ],
      [
        "هم",
        "گی"
      ],
      [
        "پید",
        "ایش"
      ],
      [
        "تشوی",
        "ق"
      ],
      [
        "ب",
        "ي"
      ],
      [
        "ت",
        "نگ"
      ],
      [
        "ل",
        "گ"
      ],
      [
        "خو",
        "ان"
      ],
      [
        "فت",
        "ه"
      ],
      [
        "تو",
        "ش"
      ],
      [
        "نو",
        "شید"
      ],
      [
        "قدر",
        "ت"
      ],
      [
        "دل",
        "ش"
      ],
      [
        "چشمان",
        "ش"
      ],
      [
        "دای",
        "ره"
      ],
      [
        "لگ",
        "د"
      ],
      [
        "آ",
        "سی"
      ],
      [
        "س",
        "ن"
      ],
      [
        "ف",
        "لو"
      ],
      [
        "می‌",
        "شن"
      ],
      [
        "بال",
        "ش"
      ],
      [
        "کوچولو",
        "ی"
      ],
      [
        "ماشین",
        "ش"
      ],
      [
        "پای",
        "ش"
      ],
      [
        "قی",
        "چی"
      ],
      [
        "مادربزرگ",
        "ش"
      ],
      [
        "احمق",
        "انه"
      ],
      [
        "لاک",
        "‌"
      ],
      [
        "کلما",
        "ت"
      ],
      [
        "پیاده‌",
        "روی"
      ],
      [
        "ا",
        "گه"
      ],
      [
        "ف",
        "لف"
      ],
      [
        "تو",
        "جه"
      ],
      [
        "گو",
        "زن"
      ],
      [
        "سر",
        "خ"
      ],
      [
        "باغ",
        "چه"
      ],
      [
        "بپو",
        "شد"
      ],
      [
        "آ",
        "ور"
      ],
      [
        "ن",
        "کند"
      ],
      [
        "گ",
        "رو"
      ],
      [
        "شی",
        "ند"
      ],
      [
        "اح",
        "ترا"
      ],
      [
        "برد",
        "ن"
      ],
      [
        "بش",
        "قاب"
      ],
      [
        "تخ",
        "م"
      ],
      [
        "یخ",
        "چال"
      ],
      [
        "آموخت",
        "ند"
      ],
      [
        "ب",
        "گرد"
      ],
      [
        "ت",
        "يم"
      ],
      [
        "س",
        "لی"
      ],
      [
        "س",
        "مه"
      ],
      [
        "م",
        "غرور"
      ],
      [
        "ن",
        "می‌دانم"
      ],
      [
        "چ",
        "ید"
      ],
      [
        "چ",
        "نین"
      ],
      [
        "دو",
        "ان"
      ],
      [
        "مو",
        "ج"
      ],
      [
        "بده",
        "ی"
      ],
      [
        "اطرا",
        "فش"
      ],
      [
        "عش",
        "ق"
      ],
      [
        "ئ",
        "ه"
      ],
      [
        "ج",
        "ت"
      ],
      [
        "ح",
        "ین"
      ],
      [
        "ش",
        "ل"
      ],
      [
        "رو",
        "ش"
      ],
      [
        "کو",
        "ه"
      ],
      [
        "بگی",
        "ر"
      ],
      [
        "ساخت",
        "مان"
      ],
      [
        "موق",
        "ع"
      ],
      [
        "فلف",
        "ل"
      ],
      [
        "r",
        "e"
      ],
      [
        "ا",
        "ين"
      ],
      [
        "ح",
        "مل"
      ],
      [
        "م",
        "ص"
      ],
      [
        "می‌",
        "کنید"
      ],
      [
        "ام",
        "د"
      ],
      [
        "مو",
        "م"
      ],
      [
        "خان",
        "ه‌ی"
      ],
      [
        "ماشین",
        "‌های"
      ],
      [
        "نو",
        "ازش"
      ],
      [
        "گذاشت",
        "ه"
      ],
      [
        "ترسید",
        "ند"
      ],
      [
        "ماهی",
        "‌ها"
      ],
      [
        "کش",
        "ند"
      ],
      [
        "تم",
        "رین"
      ],
      [
        "محبو",
        "ب"
      ],
      [
        "احتی",
        "اط"
      ],
      [
        "با",
        "بی"
      ],
      [
        "بزرگ",
        "تر"
      ],
      [
        "سنگ",
        "‌ها"
      ],
      [
        "برداشت",
        "ند"
      ],
      [
        "دنبال",
        "ش"
      ],
      [
        "غذا",
        "های"
      ],
      [
        "هیچ",
        "وقت"
      ],
      [
        "مج",
        "سمه"
      ],
      [
        "متأسف",
        "م"
[...]
